{
  "version": "1.0",
  "truncation": null,
  "padding": null,
  "added_tokens": [
    {
      "id": 0,
      "content": "<|begin_of_text|>",
      "single_word": false,
      "lstrip": false,
      "rstrip": false,
      "normalized": false,
      "special": true
    },
    {
      "id": 1,
      "content": "<|end_of_text|>",
      "single_word": false,
      "lstrip": false,
      "rstrip": false,
      "normalized": false,
      "special": true
    },
    {
      "id": 2,
      "content": "<|padding|>",
      "single_word": false,
      "lstrip": false,
      "rstrip": false,
      "normalized": false,
      "special": true
    },
    {
      "id": 3,
      "content": "<|mask|>",
      "single_word": false,
      "lstrip": false,
      "rstrip": false,
      "normalized": false,
      "special": true
    },
    {
      "id": 4,
      "content": "  ",
      "single_word": false,
      "lstrip": false,
      "rstrip": false,
      "normalized": true,
      "special": false
    },
    {
      "id": 5,
      "content": "    ",
      "single_word": false,
      "lstrip": false,
      "rstrip": false,
      "normalized": true,
      "special": false
    },
    {
      "id": 6,
      "content": "      ",
      "single_word": false,
      "lstrip": false,
      "rstrip": false,
      "normalized": true,
      "special": false
    },
    {
      "id": 7,
      "content": "        ",
      "single_word": false,
      "lstrip": false,
      "rstrip": false,
      "normalized": true,
      "special": false
    },
    {
      "id": 8,
      "content": "          ",
      "single_word": false,
      "lstrip": false,
      "rstrip": false,
      "normalized": true,
      "special": false
    },
    {
      "id": 9,
      "content": "            ",
      "single_word": false,
      "lstrip": false,
      "rstrip": false,
      "normalized": true,
      "special": false
    },
    {
      "id": 10,
      "content": "              ",
      "single_word": false,
      "lstrip": false,
      "rstrip": false,
      "normalized": true,
      "special": false
    },
    {
      "id": 11,
      "content": "                ",
      "single_word": false,
      "lstrip": false,
      "rstrip": false,
      "normalized": true,
      "special": false
    },
    {
      "id": 12,
      "content": "                  ",
      "single_word": false,
      "lstrip": false,
      "rstrip": false,
      "normalized": true,
      "special": false
    },
    {
      "id": 13,
      "content": "                    ",
      "single_word": false,
      "lstrip": false,
      "rstrip": false,
      "normalized": true,
      "special": false
    },
    {
      "id": 14,
      "content": "                      ",
      "single_word": false,
      "lstrip": false,
      "rstrip": false,
      "normalized": true,
      "special": false
    },
    {
      "id": 15,
      "content": "                        ",
      "single_word": false,
      "lstrip": false,
      "rstrip": false,
      "normalized": true,
      "special": false
    }
  ],
  "normalizer": {
    "type": "NFC"
  },
  "pre_tokenizer": {
    "type": "Sequence",
    "pretokenizers": [
      {
        "type": "Split",
        "pattern": {
          "Regex": "[^\\r\\n\\p{L}\\p{N}]?[\\p{L}]+|\\p{N}{1,3}| ?[^\\s\\p{L}\\p{N}]+[\\r\\n]*|\\s*[\\r\\n]+|\\s+(?!\\S)|\\s+"
        },
        "behavior": "Isolated",
        "invert": false
      },
      {
        "type": "ByteLevel",
        "add_prefix_space": true,
        "trim_offsets": true,
        "use_regex": false
      }
    ]
  },
  "post_processor": {
    "type": "TemplateProcessing",
    "single": [
      {
        "SpecialToken": {
          "id": "<|begin_of_text|>",
          "type_id": 0
        }
      },
      {
        "Sequence": {
          "id": "A",
          "type_id": 0
        }
      },
      {
        "SpecialToken": {
          "id": "<|end_of_text|>",
          "type_id": 0
        }
      }
    ],
    "pair": [
      {
        "SpecialToken": {
          "id": "<|begin_of_text|>",
          "type_id": 0
        }
      },
      {
        "Sequence": {
          "id": "A",
          "type_id": 0
        }
      },
      {
        "SpecialToken": {
          "id": "<|end_of_text|>",
          "type_id": 0
        }
      },
      {
        "Sequence": {
          "id": "B",
          "type_id": 0
        }
      },
      {
        "SpecialToken": {
          "id": "<|end_of_text|>",
          "type_id": 0
        }
      }
    ],
    "special_tokens": {
      "<|begin_of_text|>": {
        "id": "<|begin_of_text|>",
        "ids": [
          0
        ],
        "tokens": [
          "<|begin_of_text|>"
        ]
      },
      "<|end_of_text|>": {
        "id": "<|end_of_text|>",
        "ids": [
          1
        ],
        "tokens": [
          "<|end_of_text|>"
        ]
      }
    }
  },
  "decoder": {
    "type": "ByteLevel",
    "add_prefix_space": true,
    "trim_offsets": true,
    "use_regex": true
  },
  "model": {
    "type": "BPE",
    "dropout": null,
    "unk_token": null,
    "continuing_subword_prefix": null,
    "end_of_word_suffix": null,
    "fuse_unk": false,
    "byte_fallback": false,
    "ignore_merges": false,
    "vocab": {
      "<|begin_of_text|>": 0,
      "<|end_of_text|>": 1,
      "<|padding|>": 2,
      "<|mask|>": 3,
      "  ": 4,
      "    ": 5,
      "      ": 6,
      "        ": 7,
      "          ": 8,
      "            ": 9,
      "              ": 10,
      "                ": 11,
      "                  ": 12,
      "                    ": 13,
      "                      ": 14,
      "                        ": 15,
      "!": 16,
      "\"": 17,
      "#": 18,
      "$": 19,
      "%": 20,
      "&": 21,
      "'": 22,
      "(": 23,
      ")": 24,
      "*": 25,
      "+": 26,
      ",": 27,
      "-": 28,
      ".": 29,
      "/": 30,
      "0": 31,
      "1": 32,
      "2": 33,
      "3": 34,
      "4": 35,
      "5": 36,
      "6": 37,
      "7": 38,
      "8": 39,
      "9": 40,
      ":": 41,
      ";": 42,
      "<": 43,
      "=": 44,
      ">": 45,
      "?": 46,
      "@": 47,
      "A": 48,
      "B": 49,
      "C": 50,
      "D": 51,
      "E": 52,
      "F": 53,
      "G": 54,
      "H": 55,
      "I": 56,
      "J": 57,
      "K": 58,
      "L": 59,
      "M": 60,
      "N": 61,
      "O": 62,
      "P": 63,
      "Q": 64,
      "R": 65,
      "S": 66,
      "T": 67,
      "U": 68,
      "V": 69,
      "W": 70,
      "X": 71,
      "Y": 72,
      "Z": 73,
      "[": 74,
      "\\": 75,
      "]": 76,
      "^": 77,
      "_": 78,
      "`": 79,
      "a": 80,
      "b": 81,
      "c": 82,
      "d": 83,
      "e": 84,
      "f": 85,
      "g": 86,
      "h": 87,
      "i": 88,
      "j": 89,
      "k": 90,
      "l": 91,
      "m": 92,
      "n": 93,
      "o": 94,
      "p": 95,
      "q": 96,
      "r": 97,
      "s": 98,
      "t": 99,
      "u": 100,
      "v": 101,
      "w": 102,
      "x": 103,
      "y": 104,
      "z": 105,
      "{": 106,
      "|": 107,
      "}": 108,
      "~": 109,
      "¡": 110,
      "¢": 111,
      "£": 112,
      "¤": 113,
      "¥": 114,
      "¦": 115,
      "§": 116,
      "¨": 117,
      "©": 118,
      "ª": 119,
      "«": 120,
      "¬": 121,
      "®": 122,
      "¯": 123,
      "°": 124,
      "±": 125,
      "²": 126,
      "³": 127,
      "´": 128,
      "µ": 129,
      "¶": 130,
      "·": 131,
      "¸": 132,
      "¹": 133,
      "º": 134,
      "»": 135,
      "¼": 136,
      "½": 137,
      "¾": 138,
      "¿": 139,
      "Â": 140,
      "Ã": 141,
      "Ä": 142,
      "Å": 143,
      "Æ": 144,
      "Ç": 145,
      "È": 146,
      "É": 147,
      "Ê": 148,
      "Ë": 149,
      "Ì": 150,
      "Í": 151,
      "Î": 152,
      "Ï": 153,
      "Ð": 154,
      "Ñ": 155,
      "Ò": 156,
      "Ó": 157,
      "Ô": 158,
      "Õ": 159,
      "Ö": 160,
      "×": 161,
      "Ø": 162,
      "Ù": 163,
      "Ú": 164,
      "Û": 165,
      "Ü": 166,
      "Ý": 167,
      "Þ": 168,
      "ß": 169,
      "à": 170,
      "á": 171,
      "â": 172,
      "ã": 173,
      "ä": 174,
      "å": 175,
      "æ": 176,
      "ç": 177,
      "è": 178,
      "é": 179,
      "ê": 180,
      "ë": 181,
      "ì": 182,
      "í": 183,
      "î": 184,
      "ï": 185,
      "ð": 186,
      "ñ": 187,
      "ò": 188,
      "ó": 189,
      "ô": 190,
      "ĉ": 191,
      "Ċ": 192,
      "Č": 193,
      "Ġ": 194,
      "Ģ": 195,
      "ģ": 196,
      "Ĥ": 197,
      "ĥ": 198,
      "Ħ": 199,
      "ħ": 200,
      "Ĩ": 201,
      "ĩ": 202,
      "Ī": 203,
      "ī": 204,
      "Ĭ": 205,
      "ĭ": 206,
      "Į": 207,
      "į": 208,
      "İ": 209,
      "ı": 210,
      "Ĳ": 211,
      "ĳ": 212,
      "Ĵ": 213,
      "ĵ": 214,
      "Ķ": 215,
      "ķ": 216,
      "ĸ": 217,
      "Ĺ": 218,
      "ĺ": 219,
      "Ļ": 220,
      "ļ": 221,
      "Ľ": 222,
      "ľ": 223,
      "Ŀ": 224,
      "ŀ": 225,
      "Ł": 226,
      "ł": 227,
      "Ń": 228,
      "ng": 229,
      "Ġw": 230,
      "Ġc": 231,
      "te": 232,
      "to": 233,
      "ar": 234,
      "ou": 235,
      "al": 236,
      "ing": 237,
      "is": 238,
      "it": 239,
      "Ġp": 240,
      "Ġf": 241,
      "Ġb": 242,
      "ve": 243,
      "nt": 244,
      "le": 245,
      "Ġto": 246,
      "Ġm": 247,
      "se": 248,
      "Ġh": 249,
      "Ġt": 250,
      "of": 251,
      "st": 252,
      "Ġof": 253,
      "io": 254,
      "Ġd": 255,
      "ne": 256,
      "ic": 257,
      "ion": 258,
      "Ġe": 259,
      "Ġr": 260,
      "me": 261,
      "as": 262,
      "ro": 263,
      "ed": 264,
      "ĊĊ": 265,
      "ha": 266,
      "ac": 267,
      "Ġco": 268,
      "ĠT": 269,
      "il": 270,
      "Ġre": 271,
      "tion": 272,
      "Ġl": 273,
      "ĠI": 274,
      "ra": 275,
      "de": 276,
      "nc": 277,
      "Ġy": 278,
      "Ġ'": 279,
      "ly": 280,
      "Ġbe": 281,
      "Ġg": 282,
      "Ġfo": 283,
      "ur": 284,
      "ie": 285,
      "Ġ-": 286,
      "Ġis": 287,
      "ĠA": 288,
      "Ġa": 289,
      "Ġan": 290,
      "Ġand": 291,
      "Ġyou": 292,
      "ter": 293,
      "ĠS": 294,
      "Ġfor": 295,
      "hat": 296,
      "no": 297,
      "pe": 298,
      "ĠTh": 299,
      "ir": 300,
      "so": 301,
      "ig": 302,
      "Ġu": 303,
      "ĠC": 304,
      ".ĊĊ": 305,
      "ay": 306,
      "ns": 307,
      "Ġ.ĊĊ": 308,
      "ith": 309,
      "ver": 310,
      "ea": 311,
      "ke": 312,
      "ho": 313,
      "lo": 314,
      "Ġthat": 315,
      "Ġwith": 316,
      "mp": 317,
      "ss": 318,
      "are": 319,
      "ge": 320,
      "Ġse": 321,
      "ation": 322,
      "ĠThe": 323,
      "ate": 324,
      "Ġde": 325,
      "rs": 326,
      "ĠM": 327,
      "Ġit": 328,
      "nce": 329,
      "Ġst": 330,
      "Ġas": 331,
      "Ġca": 332,
      "Ġha": 333,
      "ĠW": 334,
      "ĠP": 335,
      "ri": 336,
      "ul": 337,
      "Ġmo": 338,
      "Ġpro": 339,
      "Ġ's": 340,
      "Ġ:": 341,
      "Ġal": 342,
      "if": 343,
      "ĠB": 344,
      "Ġwe": 345,
      "Ġno": 346,
      "Ġ1": 347,
      "Ġma": 348,
      "Ġhe": 349,
      "uc": 350,
      "ut": 351,
      "rt": 352,
      "ment": 353,
      "ot": 354,
      "ld": 355,
      "ive": 356,
      "et": 357,
      "Ġ2": 358,
      "ĠH": 359,
      "ow": 360,
      "Ġare": 361,
      "ine": 362,
      "ce": 363,
      "Ġwh": 364,
      "ue": 365,
      "out": 366,
      "Ġex": 367,
      "ill": 368,
      "ĠD": 369,
      "ĠĊĊ": 370,
      "id": 371,
      "Ġso": 372,
      "ide": 373,
      "Ġ\"": 374,
      "ted": 375,
      "ĠF": 376,
      "igh": 377,
      "na": 378,
      "ec": 379,
      "oo": 380,
      "ble": 381,
      "us": 382,
      "ity": 383,
      "Ġne": 384,
      "ĠR": 385,
      "Ġat": 386,
      "ee": 387,
      "po": 388,
      "la": 389,
      "co": 390,
      "ma": 391,
      "Ġv": 392,
      "ies": 393,
      "ts": 394,
      "ure": 395,
      "Ġpr": 396,
      "ĠE": 397,
      "rea": 398,
      "Ġyour": 399,
      "ol": 400,
      "Ġ(": 401,
      "Ġle": 402,
      "ĠL": 403,
      "Ġcan": 404,
      "Ġpe": 405,
      "ĠĊ": 406,
      "rom": 407,
      "im": 408,
      "ia": 409,
      "our": 410,
      "Ġwas": 411,
      "Ġ)": 412,
      "th": 413,
      "his": 414,
      "ĠN": 415,
      "sh": 416,
      "ĠG": 417,
      "ch": 418,
      "ting": 419,
      "Ġdo": 420,
      "Ġhave": 421,
      "su": 422,
      "Ġac": 423,
      "Ġwo": 424,
      "Ġfrom": 425,
      "Ġthis": 426,
      "ĠO": 427,
      "ry": 428,
      "Ġby": 429,
      "ice": 430,
      "one": 431,
      "fo": 432,
      "art": 433,
      "ial": 434,
      "ds": 435,
      "ll": 436,
      ".Ċ": 437,
      "ding": 438,
      "Ġnot": 439,
      "fe": 440,
      "Ġpo": 441,
      "Ġme": 442,
      "Ġ.Ċ": 443,
      "Ġte": 444,
      "mo": 445,
      "Ġsu": 446,
      "un": 447,
      "sa": 448,
      "pp": 449,
      "be": 450,
      "qu": 451,
      "ai": 452,
      "ust": 453,
      "ould": 454,
      "der": 455,
      "oth": 456,
      "Ġlo": 457,
      "ant": 458,
      "king": 459,
      "Ġsh": 460,
      "Ġwill": 461,
      "Ġcon": 462,
      "for": 463,
      "gh": 464,
      "ist": 465,
      "ight": 466,
      "ning": 467,
      "Ġwor": 468,
      "ĠIn": 469,
      "ally": 470,
      "ime": 471,
      "Ġch": 472,
      "op": 473,
      "sed": 474,
      "eir": 475,
      "heir": 476,
      "Ġtheir": 477,
      "Ġab": 478,
      "Ġli": 479,
      "Ġj": 480,
      "Ġad": 481,
      "Ġun": 482,
      "ey": 483,
      "Ġ?": 484,
      "oun": 485,
      "Ġk": 486,
      "Ġ3": 487,
      "Ġsa": 488,
      "ad": 489,
      "Ġ20": 490,
      "Ġcomp": 491,
      "ĠJ": 492,
      "inc": 493,
      "am": 494,
      "Ġcom": 495,
      "ough": 496,
      "Ġper": 497,
      "si": 498,
      "ĠU": 499,
      "nts": 500,
      "em": 501,
      "Ġhas": 502,
      "ack": 503,
      "Ġbut": 504,
      "um": 505,
      "ach": 506,
      "ip": 507,
      "Ġ0": 508,
      "ich": 509,
      "tive": 510,
      "ĠCo": 511,
      "Ġmor": 512,
      "hey": 513,
      "nter": 514,
      "Ġthey": 515,
      "ree": 516,
      "ace": 517,
      "ile": 518,
      "ous": 519,
      "spe": 520,
      "Ġwhe": 521,
      "fer": 522,
      "Ġout": 523,
      "othe": 524,
      "iv": 525,
      "Ġinc": 526,
      "Ġall": 527,
      "Ġla": 528,
      "ny": 529,
      "Ġone": 530,
      "sc": 531,
      "ear": 532,
      "lu": 533,
      "all": 534,
      "ard": 535,
      "Ġpre": 536,
      "Ġmore": 537,
      "ks": 538,
      "Ġ't": 539,
      "tor": 540,
      "iz": 541,
      "sp": 542,
      "Ġhis": 543,
      "low": 544,
      "ent": 545,
      "very": 546,
      "Ġsome": 547,
      "the": 548,
      "age": 549,
      "Ġmy": 550,
      "ĠY": 551,
      "able": 552,
      "Ġup": 553,
      "Ġn": 554,
      "nge": 555,
      "Ġho": 556,
      "per": 557,
      "over": 558,
      "Ġen": 559,
      "ain": 560,
      "od": 561,
      "Ġâ": 562,
      "Ġtra": 563,
      "duc": 564,
      "ition": 565,
      "ff": 566,
      "ical": 567,
      "han": 568,
      "Ġher": 569,
      "Ġdis": 570,
      "Ġ5": 571,
      "Ġtime": 572,
      "ound": 573,
      "ms": 574,
      "ses": 575,
      "other": 576,
      "Ġ4": 577,
      "ated": 578,
      "ary": 579,
      "Ġwhich": 580,
      "ture": 581,
      "ĠThis": 582,
      "Ġwho": 583,
      "Ġabout": 584,
      "Ġlike": 585,
      "ĠIt": 586,
      "uch": 587,
      "Ġar": 588,
      "ĠâĢ": 589,
      "ish": 590,
      "..": 591,
      "Ġpl": 592,
      "Ġour": 593,
      "Ġsi": 594,
      "ĠK": 595,
      "Ġta": 596,
      "imp": 597,
      "ys": 598,
      "Ġcont": 599,
      "tions": 600,
      "Ġalso": 601,
      "ess": 602,
      "act": 603,
      "que": 604,
      "mer": 605,
      "ta": 606,
      "port": 607,
      "el": 608,
      "wo": 609,
      "Ġ!": 610,
      "Ġimp": 611,
      "cess": 612,
      "Ġspe": 613,
      "sho": 614,
      "sig": 615,
      "ven": 616,
      "Ġfi": 617,
      "now": 618,
      "ite": 619,
      "inter": 620,
      "Ġres": 621,
      "ber": 622,
      "ĠV": 623,
      "nto": 624,
      "ĠWe": 625,
      "nal": 626,
      "ese": 627,
      "lic": 628,
      "ins": 629,
      "Ġapp": 630,
      "ct": 631,
      "ther": 632,
      "led": 633,
      "Ġsho": 634,
      "Ġuse": 635,
      "Ġpa": 636,
      "hem": 637,
      "owe": 638,
      "ations": 639,
      "Ġgo": 640,
      "ays": 641,
      "Ġany": 642,
      "ca": 643,
      "we": 644,
      "Ġover": 645,
      "Ġthem": 646,
      "ner": 647,
      "hr": 648,
      "Ġinter": 649,
      "Ġpart": 650,
      "Ġsc": 651,
      "ep": 652,
      "Ġba": 653,
      "Ġif": 654,
      "Ġother": 655,
      "Ġser": 656,
      "Ġbee": 657,
      "ect": 658,
      "ned": 659,
      "ving": 660,
      "sta": 661,
      "Ġyear": 662,
      "Ġ/": 663,
      "Ġwhen": 664,
      "ud": 665,
      "Ġget": 666,
      "ire": 667,
      "Ġsp": 668,
      "ĠHe": 669,
      "les": 670,
      "Ġits": 671,
      "sing": 672,
      "Ġnew": 673,
      "nk": 674,
      "ual": 675,
      "Ġda": 676,
      "gra": 677,
      "ew": 678,
      "ob": 679,
      "int": 680,
      "Ġbeen": 681,
      "into": 682,
      "nds": 683,
      "own": 684,
      "Ġwer": 685,
      "red": 686,
      "Ġneed": 687,
      "Ġwere": 688,
      "ĠWh": 689,
      "vice": 690,
      "ments": 691,
      "Ġinto": 692,
      "Ġ6": 693,
      "ten": 694,
      "hi": 695,
      "ount": 696,
      "Ġwould": 697,
      "use": 698,
      "Ġmake": 699,
      "Ġthan": 700,
      "ise": 701,
      "ult": 702,
      "Ġwhat": 703,
      "Ġknow": 704,
      "est": 705,
      "ĠSt": 706,
      "ific": 707,
      "ook": 708,
      "va": 709,
      "Ġtr": 710,
      "Ġfa": 711,
      "ni": 712,
      "Ġqu": 713,
      "ĠRe": 714,
      "Ġwa": 715,
      "Ġhad": 716,
      "Ġjust": 717,
      "Ġmay": 718,
      "Ġra": 719,
      "pr": 720,
      "Ġprov": 721,
      "nly": 722,
      "Ġsee": 723,
      "Ġpla": 724,
      "ople": 725,
      "ub": 726,
      "Ġ201": 727,
      "Ġ7": 728,
      "lp": 729,
      "ass": 730,
      "man": 731,
      "ful": 732,
      "Ġag": 733,
      "tent": 734,
      "li": 735,
      "Ġ8": 736,
      "Ġinclu": 737,
      "ood": 738,
      "ience": 739,
      "ga": 740,
      "Ġfir": 741,
      "tes": 742,
      "ities": 743,
      "hese": 744,
      "Ġlea": 745,
      "mes": 746,
      "Ġhelp": 747,
      "log": 748,
      "Ġthese": 749,
      "sto": 750,
      "Ġwork": 751,
      "Ġhigh": 752,
      "ious": 753,
      "cial": 754,
      "Ġna": 755,
      "dition": 756,
      "line": 757,
      "Ġbet": 758,
      "ĠMa": 759,
      "Ġcha": 760,
      "Ġthr": 761,
      "Ġ9": 762,
      "Ġpeople": 763,
      "vers": 764,
      "reat": 765,
      "fter": 766,
      "form": 767,
      "ild": 768,
      "row": 769,
      "Ġop": 770,
      "ĠFo": 771,
      "Ġce": 772,
      "day": 773,
      "ily": 774,
      "ions": 775,
      "ded": 776,
      "ric": 777,
      "Ġbo": 778,
      "nu": 779,
      "Ġcons": 780,
      "Ġmi": 781,
      "ring": 782,
      "Ġga": 783,
      "Ġhow": 784,
      "Ġsta": 785,
      "Ġunder": 786,
      "Ġcl": 787,
      "ĠAn": 788,
      "ates": 789,
      "ved": 790,
      "Ġmost": 791,
      "uring": 792,
      "Ġ10": 793,
      "ĠMo": 794,
      "ale": 795,
      "thing": 796,
      "ility": 797,
      "ĠYou": 798,
      "Ġthrough": 799,
      "ĠSo": 800,
      "ru": 801,
      "lea": 802,
      "ration": 803,
      "only": 804,
      "ĠDe": 805,
      "ĠQ": 806,
      "Ġonly": 807,
      "Ġproduc": 808,
      "Ġdif": 809,
      "Ġwell": 810,
      "Ġ;": 811,
      "ife": 812,
      "nding": 813,
      "Ġ19": 814,
      "ular": 815,
      "sign": 816,
      "Ġmar": 817,
      "Ġfirst": 818,
      "men": 819,
      "ls": 820,
      "ress": 821,
      "ope": 822,
      "rate": 823,
      "ves": 824,
      "such": 825,
      "Ġsuch": 826,
      "rie": 827,
      "ps": 828,
      "ĠIf": 829,
      "ba": 830,
      "bo": 831,
      "Ġbu": 832,
      "Ġreg": 833,
      "ers": 834,
      "med": 835,
      "Ġtake": 836,
      "vent": 837,
      "Ġoff": 838,
      "Ġevery": 839,
      "ings": 840,
      "oc": 841,
      "Ġge": 842,
      "ruc": 843,
      "Ġtwo": 844,
      "ters": 845,
      ".\"": 846,
      "ty": 847,
      "iew": 848,
      "rit": 849,
      "arge": 850,
      "ĠFor": 851,
      "arch": 852,
      "Ġcrea": 853,
      "Ġcould": 854,
      "mi": 855,
      "Ġback": 856,
      "Ġ.\"": 857,
      "Ġshe": 858,
      "alth": 859,
      "Ġke": 860,
      "Ġplay": 861,
      "ance": 862,
      "sel": 863,
      "Ġam": 864,
      "Ġcomm": 865,
      "ort": 866,
      "side": 867,
      "ian": 868,
      "ude": 869,
      "cu": 870,
      "Ġreco": 871,
      "Ġsto": 872,
      "Ġins": 873,
      "nst": 874,
      "wer": 875,
      "ible": 876,
      "ĠCa": 877,
      "fore": 878,
      "Ġfin": 879,
      "son": 880,
      "ĠTo": 881,
      "Ġ..": 882,
      "Ġshould": 883,
      "Ġpri": 884,
      "its": 885,
      "pt": 886,
      "velo": 887,
      "ĠCh": 888,
      "Ġact": 889,
      "yste": 890,
      "Ġwher": 891,
      "Ġwhere": 892,
      "ĠWhat": 893,
      "lle": 894,
      "Ġope": 895,
      "ick": 896,
      "ĠAs": 897,
      "Ġloc": 898,
      "ĠâĢĵ": 899,
      "Ġafter": 900,
      "Ġmany": 901,
      "Ġcar": 902,
      "als": 903,
      "ph": 904,
      "stion": 905,
      "ppe": 906,
      "tur": 907,
      "Ġvery": 908,
      "Ġbeca": 909,
      "Ġsub": 910,
      "xt": 911,
      "Ġexper": 912,
      "Ġgr": 913,
      "ling": 914,
      "Ġdiffer": 915,
      "Ġservice": 916,
      "ics": 917,
      "Ġeven": 918,
      "ient": 919,
      "ib": 920,
      "hose": 921,
      "Ġway": 922,
      "Ġsaid": 923,
      "ction": 924,
      "Ġyears": 925,
      "sk": 926,
      "Ġro": 927,
      "Ġexp": 928,
      "Ġrel": 929,
      "om": 930,
      "Ġprovide": 931,
      "ser": 932,
      "tors": 933,
      "Ġide": 934,
      "ness": 935,
      "tch": 936,
      "Ġtrans": 937,
      "Ġgood": 938,
      "00": 939,
      "sur": 940,
      "ica": 941,
      "sts": 942,
      "syste": 943,
      "Ġus": 944,
      "Ġeff": 945,
      "ron": 946,
      "Ġexpe": 947,
      "ĠSh": 948,
      "velop": 949,
      "ower": 950,
      "Ġbus": 951,
      "Ġwant": 952,
      "Ġ'r": 953,
      "Ġrece": 954,
      "Ġdoe": 955,
      "Ġ're": 956,
      "ational": 957,
      "Ġgra": 958,
      "gan": 959,
      "Ġdoes": 960,
      "vo": 961,
      "nde": 962,
      "alle": 963,
      "ues": 964,
      "Ġshow": 965,
      "tle": 966,
      "Ġnow": 967,
      "jo": 968,
      "Ġthi": 969,
      "nse": 970,
      "ĠLa": 971,
      "Ġset": 972,
      "Ġ$": 973,
      "Ġdec": 974,
      "Ġsur": 975,
      "Ġbecause": 976,
      "Ġsyste": 977,
      "ĠPro": 978,
      "Ġbeing": 979,
      "ize": 980,
      "tory": 981,
      "Ġhome": 982,
      "wee": 983,
      "Ġsup": 984,
      "Ġwhile": 985,
      "aso": 986,
      "ead": 987,
      "ĠSe": 988,
      "Ġused": 989,
      "Ġvar": 990,
      "Ġdid": 991,
      "nte": 992,
      "Ġthose": 993,
      "Ġfol": 994,
      "lan": 995,
      "ined": 996,
      "Ġdon": 997,
      "ste": 998,
      "ze": 999,
      "ĠAnd": 1000,
      "Ġlife": 1001,
      "lish": 1002,
      "mple": 1003,
      "Ġhim": 1004,
      "ĠThey": 1005,
      "iness": 1006,
      "Ġmuch": 1007,
      "rd": 1008,
      "Ġ%": 1009,
      "nder": 1010,
      "ĠNo": 1011,
      "Ġcompa": 1012,
      "Ġob": 1013,
      "Ġmet": 1014,
      "ĠQue": 1015,
      "unc": 1016,
      "Ġgu": 1017,
      "mber": 1018,
      "sm": 1019,
      "ces": 1020,
      "ash": 1021,
      "hool": 1022,
      "Ġexperience": 1023,
      "formation": 1024,
      "Ġchild": 1025,
      "Ġbest": 1026,
      "ral": 1027,
      "nf": 1028,
      "nth": 1029,
      "Ġfam": 1030,
      "Ġdown": 1031,
      "Ġmea": 1032,
      "ĠPr": 1033,
      "Ġfee": 1034,
      "Ġday": 1035,
      "Ġele": 1036,
      "sit": 1037,
      "ĠBe": 1038,
      "Ġgive": 1039,
      "vel": 1040,
      "ark": 1041,
      "Ġmed": 1042,
      "Ġfac": 1043,
      "ney": 1044,
      "Ġbefore": 1045,
      "Ġsm": 1046,
      "ck": 1047,
      "Ġtoo": 1048,
      "owever": 1049,
      "Ġhealth": 1050,
      "Ġsk": 1051,
      ",\"": 1052,
      "Ġworld": 1053,
      "iss": 1054,
      "ween": 1055,
      "Ġcur": 1056,
      "Ġeach": 1057,
      "Ġdevelop": 1058,
      "Ġagain": 1059,
      "ality": 1060,
      "less": 1061,
      "ence": 1062,
      "rk": 1063,
      "rib": 1064,
      "ab": 1065,
      "Ġcomple": 1066,
      "Ġaw": 1067,
      "Ġty": 1068,
      "go": 1069,
      "Ġ,\"": 1070,
      "oup": 1071,
      "ncy": 1072,
      "ket": 1073,
      "lie": 1074,
      "Ġprof": 1075,
      "Ġrequ": 1076,
      "Ġpol": 1077,
      "Ġboth": 1078,
      "Ġbetween": 1079,
      "ied": 1080,
      "inst": 1081,
      "Ġoffer": 1082,
      "Ġvis": 1083,
      "nline": 1084,
      "ĠTher": 1085,
      "nv": 1086,
      "Ġfind": 1087,
      "nage": 1088,
      "usto": 1089,
      "Ġear": 1090,
      "Ġusing": 1091,
      "Ġdifferent": 1092,
      "tic": 1093,
      "Ġcommun": 1094,
      "Ġfollow": 1095,
      "Ġart": 1096,
      "tures": 1097,
      "ĠAns": 1098,
      "self": 1099,
      "ĠThere": 1100,
      "tter": 1101,
      "ĠAl": 1102,
      "Ġ200": 1103,
      "Ġ),": 1104,
      "ĠAd": 1105,
      "Ġmade": 1106,
      "com": 1107,
      "Ġright": 1108,
      "Ġtech": 1109,
      "ders": 1110,
      "Ġ&": 1111,
      "ĠPe": 1112,
      "ĠQuestion": 1113,
      "Ġplace": 1114,
      "ĠAnswer": 1115,
      "Ġcho": 1116,
      "Ġstude": 1117,
      "Ġappro": 1118,
      "Ġ:ĊĊ": 1119,
      "Ġ:Ċ": 1120,
      "ĠWhe": 1121,
      "Ġhou": 1122,
      "Ġpartic": 1123,
      "Ġcare": 1124,
      "ĠSa": 1125,
      "Ġdri": 1126,
      "Ġgreat": 1127,
      "up": 1128,
      "Ġhu": 1129,
      "Ġemp": 1130,
      "rn": 1131,
      "Ġlear": 1132,
      "Ġsec": 1133,
      "Ġinst": 1134,
      "Ġclo": 1135,
      "rage": 1136,
      "ĠBut": 1137,
      "do": 1138,
      "sent": 1139,
      "Ġwee": 1140,
      "Ġpur": 1141,
      "nformation": 1142,
      "view": 1143,
      "Ġste": 1144,
      "information": 1145,
      "Ġweb": 1146,
      "Ġdata": 1147,
      "ĠEx": 1148,
      "Ġspec": 1149,
      "inf": 1150,
      "ating": 1151,
      "ries": 1152,
      "Ġlong": 1153,
      "Ġinformation": 1154,
      "Ġaround": 1155,
      "Ġval": 1156,
      "ines": 1157,
      "Ġsupport": 1158,
      "ivid": 1159,
      "ards": 1160,
      "Ġ've": 1161,
      "tr": 1162,
      "Ġ'm": 1163,
      "Ġincluding": 1164,
      "Ġfree": 1165,
      "fort": 1166,
      "ton": 1167,
      "hough": 1168,
      "Ġthough": 1169,
      "ci": 1170,
      "sy": 1171,
      "Ġduring": 1172,
      "Ġred": 1173,
      "rent": 1174,
      "gy": 1175,
      "Ġsign": 1176,
      "vail": 1177,
      "ject": 1178,
      "ast": 1179,
      "Ġeas": 1180,
      "Ġimport": 1181,
      "Ġcor": 1182,
      "Ġown": 1183,
      "gram": 1184,
      "Ġpub": 1185,
      "ior": 1186,
      "ging": 1187,
      "Ġhere": 1188,
      "Ġque": 1189,
      "inv": 1190,
      "Ġ?ĊĊ": 1191,
      "Ġnum": 1192,
      "Ġstar": 1193,
      "rgan": 1194,
      "pl": 1195,
      "Ġ).": 1196,
      "des": 1197,
      "Ġlook": 1198,
      "Ġinf": 1199,
      "ĠDo": 1200,
      "Ġallow": 1201,
      "ining": 1202,
      "Ġreal": 1203,
      "Ġteam": 1204,
      "ized": 1205,
      "da": 1206,
      "Ġthink": 1207,
      "Ġinv": 1208,
      "mb": 1209,
      "Ġfound": 1210,
      "ĠSc": 1211,
      "ster": 1212,
      "Ġchar": 1213,
      "Ġreally": 1214,
      "ked": 1215,
      "Ġsame": 1216,
      "vi": 1217,
      "Ġfea": 1218,
      "nted": 1219,
      "Ġwater": 1220,
      "Ġchange": 1221,
      "ĠNew": 1222,
      "ged": 1223,
      "Ġcusto": 1224,
      "pa": 1225,
      "cted": 1226,
      "ull": 1227,
      "Ġprocess": 1228,
      "lor": 1229,
      "nit": 1230,
      "Ġpho": 1231,
      "Ġconce": 1232,
      "Ġdir": 1233,
      "ĠLo": 1234,
      "divid": 1235,
      "Ġstill": 1236,
      "Ġsystem": 1237,
      "ody": 1238,
      "logy": 1239,
      "Ġbusiness": 1240,
      "Ġacc": 1241,
      "mon": 1242,
      "Ġlarge": 1243,
      "online": 1244,
      "Ġconside": 1245,
      "ura": 1246,
      "Ġmin": 1247,
      "Ġeng": 1248,
      "Ġstud": 1249,
      "Ġfun": 1250,
      "Ġonline": 1251,
      "nes": 1252,
      "ired": 1253,
      "ĠRo": 1254,
      "ital": 1255,
      "Ġcount": 1256,
      "ĠUni": 1257,
      "ft": 1258,
      "gi": 1259,
      "Ġtop": 1260,
      "Ġter": 1261,
      "sure": 1262,
      "ĠWhen": 1263,
      "ession": 1264,
      "Ġhan": 1265,
      "mic": 1266,
      "Ġph": 1267,
      "rder": 1268,
      "ĠWo": 1269,
      "dy": 1270,
      "Ġ12": 1271,
      "ists": 1272,
      "nced": 1273,
      "Ġloo": 1274,
      "Ġrespo": 1275,
      "dividual": 1276,
      "jec": 1277,
      "ways": 1278,
      "ĠJo": 1279,
      "Ġlast": 1280,
      "ners": 1281,
      "Ġadd": 1282,
      "Ġavail": 1283,
      "Ġdist": 1284,
      "Ġman": 1285,
      "ker": 1286,
      "Ġiss": 1287,
      "Ġwi": 1288,
      "ption": 1289,
      "ara": 1290,
      "Ġundersta": 1291,
      "Ġlive": 1292,
      "ĠGe": 1293,
      "Ġens": 1294,
      "ĠJa": 1295,
      "Ġgrow": 1296,
      "hree": 1297,
      "Ġmight": 1298,
      "Ġthree": 1299,
      "cor": 1300,
      "loy": 1301,
      "Ġgoing": 1302,
      "come": 1303,
      "Ġwithout": 1304,
      "cha": 1305,
      "Ġfe": 1306,
      "Ġschool": 1307,
      "ĠHo": 1308,
      "Ġ...": 1309,
      "ually": 1310,
      "merica": 1311,
      "Ġent": 1312,
      "ndividual": 1313,
      "individual": 1314,
      "ĠâĢĶ": 1315,
      "Ġindividual": 1316,
      "ĠHowever": 1317,
      "Ġoften": 1318,
      "Ġgame": 1319,
      "Ġstate": 1320,
      "ĠTe": 1321,
      "say": 1322,
      "Ġ'll": 1323,
      "Ġlot": 1324,
      "Ġhand": 1325,
      "Ġcal": 1326,
      "Ġfr": 1327,
      "Ġage": 1328,
      "land": 1329,
      "mage": 1330,
      "ason": 1331,
      "min": 1332,
      "Ġlove": 1333,
      "ared": 1334,
      "organ": 1335,
      "inte": 1336,
      "Ġsay": 1337,
      "nces": 1338,
      "Ġrese": 1339,
      "Ġmust": 1340,
      "ĠHa": 1341,
      "ĠMe": 1342,
      "ights": 1343,
      "Ġconf": 1344,
      "Ġwithi": 1345,
      "Ġwithin": 1346,
      "sonal": 1347,
      "Ġend": 1348,
      "Ġkeep": 1349,
      "ĠDa": 1350,
      "con": 1351,
      "Ġbra": 1352,
      "bers": 1353,
      "Ġavailable": 1354,
      "ically": 1355,
      "ross": 1356,
      "Ġuni": 1357,
      "ĠShe": 1358,
      "Ġlit": 1359,
      "Ġbrea": 1360,
      "suc": 1361,
      "Ġbr": 1362,
      "Ġeffec": 1363,
      "Ġdef": 1364,
      "old": 1365,
      "eth": 1366,
      "mm": 1367,
      "ship": 1368,
      "Ġmonth": 1369,
      "Ġexce": 1370,
      "rol": 1371,
      "Ġpower": 1372,
      "nsive": 1373,
      "Ġstudents": 1374,
      "Ġorgan": 1375,
      "Ġsuc": 1376,
      "ield": 1377,
      "Ġappe": 1378,
      "Ġfamily": 1379,
      "Ġfew": 1380,
      "Ġim": 1381,
      "ye": 1382,
      "fers": 1383,
      "Ġmus": 1384,
      "ages": 1385,
      "Ġread": 1386,
      "ĠAmerica": 1387,
      "lease": 1388,
      "hor": 1389,
      "Ġfrie": 1390,
      "Ġwin": 1391,
      "Ġbetter": 1392,
      "ils": 1393,
      "Ġproble": 1394,
      "nger": 1395,
      "ĠAr": 1396,
      "Ġpay": 1397,
      "hings": 1398,
      "Ġnumber": 1399,
      "Ġsignific": 1400,
      "Ġform": 1401,
      "net": 1402,
      "Ġev": 1403,
      "ier": 1404,
      "rig": 1405,
      "Ġ.\"ĊĊ": 1406,
      "Ġthings": 1407,
      "Ġ15": 1408,
      "Ġhea": 1409,
      "Ġtur": 1410,
      "ately": 1411,
      "Ġint": 1412,
      "Ġmaking": 1413,
      "ĠÂ": 1414,
      "ĠThese": 1415,
      "Ġcolle": 1416,
      "order": 1417,
      "ong": 1418,
      "Ġimportant": 1419,
      "Ġprote": 1420,
      "arm": 1421,
      "ars": 1422,
      "ism": 1423,
      "Ġconti": 1424,
      "Ġmode": 1425,
      "ills": 1426,
      "Ġequ": 1427,
      "ĠPa": 1428,
      "Ġchildr": 1429,
      "Ġchildre": 1430,
      "Ġve": 1431,
      "hing": 1432,
      "Ġcompany": 1433,
      "Ġchildren": 1434,
      "Ġpop": 1435,
      "Ġ202": 1436,
      "ĠHow": 1437,
      "Ġ!ĊĊ": 1438,
      "Ġ18": 1439,
      "Ġmanage": 1440,
      "ntly": 1441,
      "ĠWith": 1442,
      "ĠBa": 1443,
      "ina": 1444,
      "ribu": 1445,
      "ino": 1446,
      "nef": 1447,
      "stor": 1448,
      "Ġtri": 1449,
      "Ġcap": 1450,
      "Ġanother": 1451,
      "Ġresearch": 1452,
      "outh": 1453,
      "Ġcert": 1454,
      "ices": 1455,
      "Ġref": 1456,
      "ĠâĢ¦": 1457,
      "sted": 1458,
      "Ġ]": 1459,
      "Ġ000": 1460,
      "Ġfil": 1461,
      "Ġaut": 1462,
      "Ġcurrent": 1463,
      "Ġactiv": 1464,
      "Ġposs": 1465,
      "ĠPo": 1466,
      "gs": 1467,
      "ward": 1468,
      "Ġtype": 1469,
      "Ġpract": 1470,
      "tential": 1471,
      "lue": 1472,
      "ify": 1473,
      "vest": 1474,
      "ision": 1475,
      "Ġlittle": 1476,
      "Ġdra": 1477,
      "Ġprovid": 1478,
      "Ġenc": 1479,
      "Ġplan": 1480,
      "Ġrequire": 1481,
      "in": 1482,
      "Ġin": 1483,
      "Ġind": 1484,
      "ind": 1485,
      "gin": 1486,
      "Ġimpro": 1487,
      "Ġblo": 1488,
      "Ġtry": 1489,
      "Ġalways": 1490,
      "ĠAt": 1491,
      "Ġsomething": 1492,
      "Ġaddition": 1493,
      "oft": 1494,
      "Ġfeel": 1495,
      "Ġcome": 1496,
      "Ġ30": 1497,
      "Ġpersonal": 1498,
      "site": 1499,
      "Ġ11": 1500,
      "Ġsignificant": 1501,
      "Ġaccess": 1502,
      "mers": 1503,
      "Ġstor": 1504,
      "Ġservices": 1505,
      "Ġbelie": 1506,
      "Ġbuil": 1507,
      "Ġrun": 1508,
      "Ġcour": 1509,
      "Ġsever": 1510,
      "den": 1511,
      "Ġoc": 1512,
      "ited": 1513,
      "ients": 1514,
      "rth": 1515,
      "pon": 1516,
      "ures": 1517,
      "cent": 1518,
      "Ġroo": 1519,
      "Ġperson": 1520,
      "Ġsug": 1521,
      "Ġprogram": 1522,
      "ideo": 1523,
      "Ġsince": 1524,
      "Ġclass": 1525,
      "Ġ>": 1526,
      "Ġbook": 1527,
      "ĠIs": 1528,
      "oor": 1529,
      "Ġ[": 1530,
      "che": 1531,
      "sw": 1532,
      "Ġpotential": 1533,
      "Ġincrea": 1534,
      "joy": 1535,
      "Ġ-f": 1536,
      "ĠMar": 1537,
      "Ġput": 1538,
      "Ġpar": 1539,
      "rm": 1540,
      "Ġel": 1541,
      "Ġsmall": 1542,
      "ĠBo": 1543,
      "Ġdue": 1544,
      "Ġsy": 1545,
      "lear": 1546,
      "Ġsure": 1547,
      "rong": 1548,
      "Ġarea": 1549,
      "ĠZ": 1550,
      "pert": 1551,
      "iety": 1552,
      "by": 1553,
      "Ġconne": 1554,
      "ĠLe": 1555,
      "Ġspecific": 1556,
      "Ġpublic": 1557,
      "Ġsing": 1558,
      "Ġorder": 1559,
      "ug": 1560,
      "Ġbenef": 1561,
      "cus": 1562,
      "hip": 1563,
      "ization": 1564,
      "Ġnext": 1565,
      "Ġbig": 1566,
      "Ġatt": 1567,
      "Ġspecial": 1568,
      "Ġnever": 1569,
      "Ġfre": 1570,
      "Ġsw": 1571,
      "uto": 1572,
      "versity": 1573,
      "terial": 1574,
      "Ġinte": 1575,
      "Ġpat": 1576,
      "ugh": 1577,
      "eck": 1578,
      "Ġmeet": 1579,
      "iso": 1580,
      "sha": 1581,
      "Ġvarious": 1582,
      "Ġconst": 1583,
      "ĠMy": 1584,
      "ware": 1585,
      "sition": 1586,
      "Ġjo": 1587,
      "Ġdays": 1588,
      "Ġfur": 1589,
      "ĠThat": 1590,
      "Ġstan": 1591,
      "ĠOur": 1592,
      "--": 1593,
      "Ġlaw": 1594,
      "time": 1595,
      "my": 1596,
      "ump": 1597,
      "nch": 1598,
      "ĠAc": 1599,
      "Ġstand": 1600,
      "aster": 1601,
      "cond": 1602,
      "ified": 1603,
      "graph": 1604,
      "Ġemploy": 1605,
      "ults": 1606,
      "iting": 1607,
      "Ġsit": 1608,
      "Ġable": 1609,
      "ĠNa": 1610,
      "Ġinclude": 1611,
      "reen": 1612,
      "Ġbea": 1613,
      "aring": 1614,
      "Ġreduc": 1615,
      "ĠTra": 1616,
      "mpa": 1617,
      "Ġoffers": 1618,
      "Ġperfor": 1619,
      "Ġagainst": 1620,
      "Ġdesign": 1621,
      "Ġchalle": 1622,
      "Ġstart": 1623,
      "Ġprofession": 1624,
      "por": 1625,
      "Ġfull": 1626,
      "Ġbody": 1627,
      "Ġsuccess": 1628,
      "Ġenjoy": 1629,
      "Ġpost": 1630,
      "illion": 1631,
      "Ġweek": 1632,
      "Ġgot": 1633,
      "Ġinterest": 1634,
      "Ġlocal": 1635,
      "ĠHer": 1636,
      "Ġinvol": 1637,
      "Ġhard": 1638,
      "Ġbro": 1639,
      "Ġair": 1640,
      "ised": 1641,
      "Ġeduc": 1642,
      "Ġparticular": 1643,
      "Ġdesig": 1644,
      "Ġapplic": 1645,
      "Ġneeds": 1646,
      "Ġexa": 1647,
      "work": 1648,
      "__": 1649,
      "ĠInd": 1650,
      "Ġsocial": 1651,
      "lack": 1652,
      "unction": 1653,
      "Ġsecond": 1654,
      "overn": 1655,
      "Ġmoney": 1656,
      "iet": 1657,
      "pping": 1658,
      "Ġside": 1659,
      "scri": 1660,
      "soft": 1661,
      "Ġris": 1662,
      "tim": 1663,
      "Ġwrit": 1664,
      "Ġstr": 1665,
      "ĠOne": 1666,
      "ming": 1667,
      "Ġcall": 1668,
      "lus": 1669,
      "ĠChr": 1670,
      "Ġmetho": 1671,
      "Ġwhy": 1672,
      "Ġmult": 1673,
      "ronment": 1674,
      "Ġcharac": 1675,
      "Ġvideo": 1676,
      "Ġcol": 1677,
      "Ġcompe": 1678,
      "Ġpoint": 1679,
      "ĠWhile": 1680,
      "Ġfood": 1681,
      "Ġview": 1682,
      "Ġgene": 1683,
      "Ġinvest": 1684,
      "Ġaway": 1685,
      "Ġenvi": 1686,
      "Ġbased": 1687,
      "ĠAll": 1688,
      "ler": 1689,
      "ache": 1690,
      "Ġmarket": 1691,
      "Ġindust": 1692,
      "sour": 1693,
      "Ġleg": 1694,
      "Ġhaving": 1695,
      "pped": 1696,
      "alk": 1697,
      "Ġless": 1698,
      "others": 1699,
      "ĠInter": 1700,
      "Ġalong": 1701,
      "ose": 1702,
      "Ġquality": 1703,
      "Ġstudy": 1704,
      "Ġtow": 1705,
      "nable": 1706,
      "Ġspace": 1707,
      "init": 1708,
      "ake": 1709,
      "Ġcase": 1710,
      "Ġjob": 1711,
      "itu": 1712,
      "Ġname": 1713,
      "Ġworking": 1714,
      "Ġwomen": 1715,
      "Ġcreate": 1716,
      "Ġevent": 1717,
      "Ġnear": 1718,
      "Ġcondition": 1719,
      "Ġident": 1720,
      "ids": 1721,
      "icle": 1722,
      "ctive": 1723,
      "Ġrea": 1724,
      "ethe": 1725,
      "Ġothers": 1726,
      "ĠUS": 1727,
      "Ġfollowing": 1728,
      "Ġeco": 1729,
      "Ġsha": 1730,
      "rite": 1731,
      "Ġ00": 1732,
      "uro": 1733,
      "ference": 1734,
      "Ġaff": 1735,
      "sting": 1736,
      "Ġunt": 1737,
      "ury": 1738,
      "nergy": 1739,
      "ign": 1740,
      "yle": 1741,
      "Ġru": 1742,
      "Ġcontrol": 1743,
      "Ġtechno": 1744,
      "Ġsite": 1745,
      "ĠEng": 1746,
      "vious": 1747,
      "portun": 1748,
      "Ġsupp": 1749,
      "Ġhouse": 1750,
      "ĠSome": 1751,
      "light": 1752,
      "rated": 1753,
      "Ġanal": 1754,
      "gether": 1755,
      "mong": 1756,
      "Ġrema": 1757,
      "ĠOn": 1758,
      "ether": 1759,
      "Ġlooking": 1760,
      "Ġcertain": 1761,
      "Ġsele": 1762,
      "Ġbas": 1763,
      "way": 1764,
      "Ġtimes": 1765,
      "Ġcourse": 1766,
      "Ġgener": 1767,
      "Ġgroup": 1768,
      "Ġlet": 1769,
      "part": 1770,
      "ĠNe": 1771,
      "Ġtreat": 1772,
      "uture": 1773,
      "acy": 1774,
      "sim": 1775,
      "Ġmaterial": 1776,
      "Ġcommunity": 1777,
      "ush": 1778,
      "Ġreceive": 1779,
      "Ġopen": 1780,
      "Ġdevelopment": 1781,
      "Ġmove": 1782,
      "Ġvo": 1783,
      "lling": 1784,
      "Ġ100": 1785,
      "Ġseveral": 1786,
      "Ġline": 1787,
      "Ġcr": 1788,
      "overnment": 1789,
      "Ġphoto": 1790,
      "Ġkey": 1791,
      "Ġsugge": 1792,
      "edic": 1793,
      "Ġment": 1794,
      "Ġinit": 1795,
      "ER": 1796,
      "Ġtoday": 1797,
      "ĠBy": 1798,
      "Ġadv": 1799,
      "lin": 1800,
      "Ġshare": 1801,
      "Ġclea": 1802,
      "Ġcent": 1803,
      "Ġcomplete": 1804,
      "soci": 1805,
      "Ġpresent": 1806,
      "Ġfar": 1807,
      "ĠCon": 1808,
      "Ġeffective": 1809,
      "Ġlight": 1810,
      "Ġproducts": 1811,
      "Ġ25": 1812,
      "Ġremo": 1813,
      "roduc": 1814,
      "Ġ16": 1815,
      "bility": 1816,
      "Ġlim": 1817,
      "uck": 1818,
      "Ġopportun": 1819,
      "Ġseem": 1820,
      "ulation": 1821,
      "Ġproduct": 1822,
      "Ġsim": 1823,
      "ĠJe": 1824,
      "ilities": 1825,
      "iver": 1826,
      "Ġwebsite": 1827,
      "ales": 1828,
      "ĠRa": 1829,
      "get": 1830,
      "gr": 1831,
      "ike": 1832,
      "cur": 1833,
      "ising": 1834,
      "Ġant": 1835,
      "verage": 1836,
      "Ġbecome": 1837,
      "Ġfla": 1838,
      "tural": 1839,
      "Ġthing": 1840,
      "Ġ14": 1841,
      "Ġpropert": 1842,
      "ĠJu": 1843,
      "Ġhappe": 1844,
      "Ġhead": 1845,
      "action": 1846,
      "Ġenter": 1847,
      "Ġretur": 1848,
      "Ġuntil": 1849,
      "Ġtool": 1850,
      "bal": 1851,
      "Ġfina": 1852,
      "rations": 1853,
      "ission": 1854,
      "ĠHis": 1855,
      "lf": 1856,
      "cording": 1857,
      "Ġroom": 1858,
      "ĠCe": 1859,
      "Ġstrate": 1860,
      "Ġreview": 1861,
      "Ġcost": 1862,
      "tal": 1863,
      "term": 1864,
      "Ġdisc": 1865,
      "mit": 1866,
      "Ġreport": 1867,
      "fect": 1868,
      "Ġcontent": 1869,
      "Ġknown": 1870,
      "wh": 1871,
      "Ġboo": 1872,
      "Ġenvironment": 1873,
      "mance": 1874,
      "Ġold": 1875,
      "Ġrange": 1876,
      "ouse": 1877,
      "und": 1878,
      "Ġshort": 1879,
      "Ġ13": 1880,
      "Ġrecom": 1881,
      "Ġ?Ċ": 1882,
      "tra": 1883,
      "par": 1884,
      "Ġes": 1885,
      "Ġeasy": 1886,
      "ken": 1887,
      "ident": 1888,
      "ĠYour": 1889,
      "bly": 1890,
      "Ġissues": 1891,
      "Ġsig": 1892,
      "olu": 1893,
      "jor": 1894,
      "Ġdeli": 1895,
      "Ġlevel": 1896,
      "Ġhuman": 1897,
      "Ġtogether": 1898,
      "Ġcame": 1899,
      "Ġstay": 1900,
      "ĠAfter": 1901,
      "ibility": 1902,
      "Ġrelation": 1903,
      "Ġelect": 1904,
      "Ġpossible": 1905,
      "Ġacross": 1906,
      "Ġglo": 1907,
      "ĠGod": 1908,
      "loo": 1909,
      "nging": 1910,
      "Ġass": 1911,
      "Ġ=": 1912,
      "Ġgames": 1913,
      "ilar": 1914,
      "Ġfuture": 1915,
      "Ġasse": 1916,
      "Ġleft": 1917,
      "inal": 1918,
      "Ġeve": 1919,
      "ĠPre": 1920,
      "val": 1921,
      "Ġunique": 1922,
      "Ġbring": 1923,
      "Ġstory": 1924,
      "ird": 1925,
      "Ġphys": 1926,
      "Ġstra": 1927,
      "ĠChrist": 1928,
      "py": 1929,
      "Ġsoft": 1930,
      "Ġlate": 1931,
      "ister": 1932,
      "stions": 1933,
      "orig": 1934,
      "ĠMor": 1935,
      "Ġmeans": 1936,
      "ĠCha": 1937,
      "mbers": 1938,
      "Ġclear": 1939,
      "Ġactually": 1940,
      "Ġstre": 1941,
      "Ġuser": 1942,
      "ift": 1943,
      "Ġbuy": 1944,
      "xim": 1945,
      "Ġproject": 1946,
      "Ġunderstan": 1947,
      "Ġunderstand": 1948,
      "iles": 1949,
      "Ġorig": 1950,
      "Ġsolu": 1951,
      "Ġmakes": 1952,
      "rating": 1953,
      "Ġwar": 1954,
      "kers": 1955,
      "image": 1956,
      "Ġmaint": 1957,
      "Ġexample": 1958,
      "Ġtas": 1959,
      "Ġfour": 1960,
      "Ġ17": 1961,
      "ngu": 1962,
      "Ġnet": 1963,
      "Ġamong": 1964,
      "Ġpast": 1965,
      "Ġclose": 1966,
      "ĠMay": 1967,
      "Ġfeatures": 1968,
      "Ġcas": 1969,
      "lished": 1970,
      "gn": 1971,
      "ints": 1972,
      "ready": 1973,
      "ought": 1974,
      "Ġcou": 1975,
      "Ġnon": 1976,
      "idence": 1977,
      "Ġrecommen": 1978,
      "Ġenough": 1979,
      "nking": 1980,
      "Ġsour": 1981,
      "Ġimage": 1982,
      "inde": 1983,
      "Ġ+": 1984,
      "Ġmusic": 1985,
      "Ġ50": 1986,
      "ĠWor": 1987,
      "ĠVe": 1988,
      "ans": 1989,
      "asing": 1990,
      "ĠCar": 1991,
      "Ġminu": 1992,
      "mor": 1993,
      "Ġinco": 1994,
      "Ġlow": 1995,
      "Ġenergy": 1996,
      "ĠX": 1997,
      "Ġwide": 1998,
      "fic": 1999,
      "ĠApp": 2000,
      "ithe": 2001,
      "Ġrec": 2002,
      "Ġ-r": 2003,
      "Ġdirec": 2004,
      "Ġface": 2005,
      "Ġensure": 2006,
      "iving": 2007,
      "Ġfunction": 2008,
      "rc": 2009,
      "once": 2010,
      "Ġprese": 2011,
      "Ġvalue": 2012,
      "ural": 2013,
      "ront": 2014,
      "ants": 2015,
      "ncial": 2016,
      "Ġnight": 2017,
      "ilit": 2018,
      "ium": 2019,
      "sle": 2020,
      "Ġperfect": 2021,
      "Ġmajor": 2022,
      "Ġfra": 2023,
      "Ġdevice": 2024,
      "Ġbit": 2025,
      "jects": 2026,
      "Ġalready": 2027,
      "ĠSer": 2028,
      "Ġenha": 2029,
      "sal": 2030,
      "Ġworks": 2031,
      "Ġrest": 2032,
      "ap": 2033,
      "Ġrelationship": 2034,
      "Ġcla": 2035,
      "ran": 2036,
      ".S": 2037,
      "Ġ.S": 2038,
      "ither": 2039,
      "Ġsize": 2040,
      "Ġ*": 2041,
      "ledge": 2042,
      "Ġmind": 2043,
      "Ġsex": 2044,
      "Ġmembers": 2045,
      "rts": 2046,
      "stab": 2047,
      "Ġsingle": 2048,
      "Ġlearning": 2049,
      "ĠAmerican": 2050,
      "Ġplat": 2051,
      "Ġrole": 2052,
      "Ġindividuals": 2053,
      "Ġleast": 2054,
      "ĠCol": 2055,
      "Ġonce": 2056,
      "gle": 2057,
      "mail": 2058,
      "nies": 2059,
      "Ġcountry": 2060,
      "Ġaccount": 2061,
      "Ġyet": 2062,
      "Ġimprove": 2063,
      "Ġbeaut": 2064,
      "yc": 2065,
      "Ġite": 2066,
      "ray": 2067,
      "dge": 2068,
      "ĠPer": 2069,
      "sor": 2070,
      "Ġdone": 2071,
      "Ġever": 2072,
      "Ġwea": 2073,
      "wa": 2074,
      "Ġfurther": 2075,
      "Ġcoo": 2076,
      "Ġearly": 2077,
      "Ġcalled": 2078,
      "Ġnecess": 2079,
      "Ġgetting": 2080,
      "hn": 2081,
      "sus": 2082,
      "Ġsol": 2083,
      "izing": 2084,
      "Ġecono": 2085,
      "Ġdidn": 2086,
      "Ġfocus": 2087,
      "ĠCl": 2088,
      "Ġeye": 2089,
      "ede": 2090,
      "Ġauthor": 2091,
      "Ġmeas": 2092,
      "IN": 2093,
      "Ġgiven": 2094,
      "Ġexpr": 2095,
      "Ġow": 2096,
      "ĠSte": 2097,
      "ĠDis": 2098,
      "ĠUniversity": 2099,
      "alf": 2100,
      "Ġauto": 2101,
      "Ġproblem": 2102,
      "Ġdoesn": 2103,
      "cts": 2104,
      "Ġpriv": 2105,
      "Ġprice": 2106,
      "room": 2107,
      "Ġcity": 2108,
      "Ġ24": 2109,
      "hie": 2110,
      "Ġsen": 2111,
      "Ġdeta": 2112,
      "Ġself": 2113,
      "Ġchallenge": 2114,
      "ĠSu": 2115,
      "Ġsitu": 2116,
      "Ġmen": 2117,
      "Ġcontin": 2118,
      "ĠSp": 2119,
      "Ġgovernment": 2120,
      "eme": 2121,
      "Ġkind": 2122,
      "Ġcra": 2123,
      "nting": 2124,
      "ngth": 2125,
      "Ġpas": 2126,
      "Ġinde": 2127,
      "Ġpic": 2128,
      "ssed": 2129,
      "Ġcomes": 2130,
      "rec": 2131,
      "ĠNot": 2132,
      "sential": 2133,
      "Ġtext": 2134,
      "Ġperio": 2135,
      "Ġdig": 2136,
      "Ġcover": 2137,
      "Ġfield": 2138,
      "matic": 2139,
      "Ġquick": 2140,
      "Ġcompr": 2141,
      "icial": 2142,
      "lls": 2143,
      "Ġsimp": 2144,
      "Ġ)ĊĊ": 2145,
      "Ġcommon": 2146,
      "rop": 2147,
      "ĠWa": 2148,
      "Ġhistory": 2149,
      "Ġapproach": 2150,
      "Ġdoing": 2151,
      "Ġpress": 2152,
      "cuss": 2153,
      "urity": 2154,
      "Ġindustry": 2155,
      "Ġbuilding": 2156,
      "national": 2157,
      "Ġhours": 2158,
      "Ġrep": 2159,
      "Ġthought": 2160,
      "Ġhy": 2161,
      "Ġconte": 2162,
      "ĠAb": 2163,
      "ncing": 2164,
      "Ġresults": 2165,
      "cially": 2166,
      "ria": 2167,
      "Ġmis": 2168,
      "rug": 2169,
      ",Ċ": 2170,
      "Ġteach": 2171,
      "Ġsomeone": 2172,
      "Ġcharacter": 2173,
      "Ġfrien": 2174,
      "Ġfriend": 2175,
      "Ġ'd": 2176,
      "Ġabo": 2177,
      "Ġver": 2178,
      "Ġsearch": 2179,
      "ON": 2180,
      "Ġheart": 2181,
      "Ġposition": 2182,
      "spo": 2183,
      "ĠFe": 2184,
      "Ġprofessional": 2185,
      "Ġusers": 2186,
      "ĠUn": 2187,
      "Ġrepr": 2188,
      "Ġrela": 2189,
      "ak": 2190,
      "Ġprovides": 2191,
      "ians": 2192,
      "ips": 2193,
      "Ġ-e": 2194,
      "rary": 2195,
      "tention": 2196,
      "Ġstruc": 2197,
      "Ġlearn": 2198,
      "Ġmillion": 2199,
      "Ġfact": 2200,
      "Ġsimple": 2201,
      "Ġlis": 2202,
      "sce": 2203,
      "Ġresour": 2204,
      "Ġreach": 2205,
      "Ġexc": 2206,
      "Ġpass": 2207,
      "Ġmain": 2208,
      "stic": 2209,
      "aining": 2210,
      "Ġwatch": 2211,
      "ises": 2212,
      "ounds": 2213,
      "ret": 2214,
      "Ġrisk": 2215,
      "Ġhold": 2216,
      "Ġdisco": 2217,
      "Ġsuper": 2218,
      "Ġdirect": 2219,
      "Ġpopular": 2220,
      "ured": 2221,
      "nor": 2222,
      "Ġcheck": 2223,
      "Ġpare": 2224,
      "specially": 2225,
      "vels": 2226,
      "Ġbed": 2227,
      "Ġprim": 2228,
      "Ġperformance": 2229,
      "Ġoffice": 2230,
      "Ġbegin": 2231,
      "Ġdia": 2232,
      "pes": 2233,
      ".,": 2234,
      "Ġmarke": 2235,
      "Ġachie": 2236,
      "gu": 2237,
      "ication": 2238,
      "Ġmonths": 2239,
      "ĠPh": 2240,
      "Ġ,Ċ": 2241,
      "ety": 2242,
      "Ġstrong": 2243,
      "nel": 2244,
      "Ġlist": 2245,
      "Ġ.,": 2246,
      "sident": 2247,
      "void": 2248,
      "nic": 2249,
      "face": 2250,
      "Ġgar": 2251,
      "Ġlead": 2252,
      "AT": 2253,
      "Ġlater": 2254,
      "ĠComm": 2255,
      "spite": 2256,
      "Ġcommit": 2257,
      "ĠUnited": 2258,
      "Ġaud": 2259,
      "Ġskills": 2260,
      "Ġacce": 2261,
      "iate": 2262,
      "Ġreprese": 2263,
      "hol": 2264,
      "Ġret": 2265,
      "Ġbar": 2266,
      "Ġquestion": 2267,
      "Ġcomb": 2268,
      "ĠPri": 2269,
      "Ġtechnology": 2270,
      "Ġmanagement": 2271,
      "ched": 2272,
      "nks": 2273,
      "Ġprevent": 2274,
      "Ġann": 2275,
      "iple": 2276,
      "rial": 2277,
      "says": 2278,
      "Ġusu": 2279,
      "Ġcomfort": 2280,
      "Ġsays": 2281,
      "ĠSec": 2282,
      "Ġyoung": 2283,
      "Ġdemo": 2284,
      "ffort": 2285,
      "tead": 2286,
      "Ġlikely": 2287,
      "Ġoptions": 2288,
      "Ġprom": 2289,
      "rac": 2290,
      "Ġ21": 2291,
      "ains": 2292,
      "Ġareas": 2293,
      "Ġfinancial": 2294,
      "Ġsafe": 2295,
      "dle": 2296,
      "load": 2297,
      "Ġparticip": 2298,
      "Ġet": 2299,
      "ĠMore": 2300,
      "ille": 2301,
      "ean": 2302,
      "ES": 2303,
      "Ġissue": 2304,
      "ĠHere": 2305,
      "Ġestab": 2306,
      "Ġnatural": 2307,
      "ech": 2308,
      "Ġfive": 2309,
      "Ġtable": 2310,
      "Ġcred": 2311,
      "Ġtax": 2312,
      "mpe": 2313,
      "ĠTa": 2314,
      "off": 2315,
      "ination": 2316,
      "wor": 2317,
      "ala": 2318,
      "Ġsimilar": 2319,
      "Ġmedia": 2320,
      "Ġ-c": 2321,
      "tional": 2322,
      "Ġjour": 2323,
      "Ġpurcha": 2324,
      "Ġtest": 2325,
      "Ġwhether": 2326,
      "Ġseen": 2327,
      "lore": 2328,
      "unch": 2329,
      "Ġessential": 2330,
      "play": 2331,
      "Ġeffort": 2332,
      "tives": 2333,
      "Ġgrowth": 2334,
      "Ġhar": 2335,
      "Ġespecially": 2336,
      "Ġprovided": 2337,
      "Ġcir": 2338,
      "bit": 2339,
      "icient": 2340,
      "Ġtradition": 2341,
      "pose": 2342,
      "ioned": 2343,
      "umer": 2344,
      "tt": 2345,
      "most": 2346,
      "Ġpolic": 2347,
      "ream": 2348,
      "tel": 2349,
      "Ġunderstanding": 2350,
      "fully": 2351,
      "Ġgir": 2352,
      "Ġseason": 2353,
      "gree": 2354,
      "fety": 2355,
      "Ġtyp": 2356,
      "Ġfriends": 2357,
      "though": 2358,
      "Ġpie": 2359,
      "Ġans": 2360,
      "ĠSouth": 2361,
      "Ġimpact": 2362,
      "eh": 2363,
      "orth": 2364,
      "ĠGr": 2365,
      "selves": 2366,
      "Ġwhole": 2367,
      "Ġcul": 2368,
      "ĠSpe": 2369,
      "Ġmess": 2370,
      "gue": 2371,
      "Ġdiscuss": 2372,
      "Ġguide": 2373,
      "Ġdesigned": 2374,
      "Ġactivities": 2375,
      "vation": 2376,
      "Ġtraining": 2377,
      "ficult": 2378,
      "Ġbelieve": 2379,
      "Ġcut": 2380,
      "Ġquestions": 2381,
      "ported": 2382,
      "Ġ--": 2383,
      "Ġextr": 2384,
      "zo": 2385,
      "Ġaddress": 2386,
      "Ġconsider": 2387,
      "Ġ-p": 2388,
      "Ġproperty": 2389,
      "Ġprevious": 2390,
      ".com": 2391,
      "Ġ.com": 2392,
      "Ġlangu": 2393,
      "Ġbur": 2394,
      "ouble": 2395,
      "Ġtaking": 2396,
      "Ġassist": 2397,
      "Ġcause": 2398,
      "lay": 2399,
      "Ġcoup": 2400,
      "Ġwriting": 2401,
      "Ġx": 2402,
      "lex": 2403,
      "cting": 2404,
      "Ġmid": 2405,
      "Ġeverything": 2406,
      "ilo": 2407,
      "Ġdeal": 2408,
      "Ġliving": 2409,
      "logical": 2410,
      "Ġ199": 2411,
      "ĠCont": 2412,
      "Ġincrease": 2413,
      "Ġminutes": 2414,
      "ced": 2415,
      "ford": 2416,
      "ĠGa": 2417,
      "not": 2418,
      "Ġvers": 2419,
      "Ġseries": 2420,
      "Ġresult": 2421,
      "eath": 2422,
      "Ġblack": 2423,
      "ification": 2424,
      "Ġfit": 2425,
      "ĠEuro": 2426,
      "Ġstore": 2427,
      "Ġdeb": 2428,
      "Ġsystems": 2429,
      "Ġrather": 2430,
      "Ġabove": 2431,
      "ĠOf": 2432,
      "ppy": 2433,
      "Ġhighe": 2434,
      "Ġtook": 2435,
      "Ġwon": 2436,
      "hin": 2437,
      "Ġgue": 2438,
      "Ġvia": 2439,
      "Ġhigher": 2440,
      "Ġdifficult": 2441,
      "Ġposit": 2442,
      "ĠTr": 2443,
      "back": 2444,
      "Ġcompanies": 2445,
      "Ġpage": 2446,
      "ula": 2447,
      "ban": 2448,
      "Ġcorr": 2449,
      "Ġdepe": 2450,
      "ror": 2451,
      "gress": 2452,
      "Ġpolit": 2453,
      "uff": 2454,
      "Ġrequired": 2455,
      "bor": 2456,
      "Ġstarted": 2457,
      "iful": 2458,
      "Ġproviding": 2459,
      "Ġbreak": 2460,
      "Ġassoci": 2461,
      "Ġsoc": 2462,
      "lick": 2463,
      "ĠGo": 2464,
      "Ġ22": 2465,
      "smo": 2466,
      "Ġcrit": 2467,
      "Ġest": 2468,
      "Ġsle": 2469,
      "ĠJohn": 2470,
      "Ġflow": 2471,
      "Ġeither": 2472,
      "Ġperiod": 2473,
      "Ġeducation": 2474,
      "ĠNow": 2475,
      "Ġchanges": 2476,
      "Ġcard": 2477,
      "dow": 2478,
      "zing": 2479,
      "imate": 2480,
      "Ġadva": 2481,
      "sis": 2482,
      "Ġconc": 2483,
      "Ġupd": 2484,
      "Ġentire": 2485,
      "Ġfavo": 2486,
      "ico": 2487,
      "AR": 2488,
      "Ġwhite": 2489,
      "ĠThan": 2490,
      "Ġ<": 2491,
      "ĠYo": 2492,
      "Ġamount": 2493,
      "Ġ_": 2494,
      "Ġpack": 2495,
      "read": 2496,
      "lement": 2497,
      "Ġhope": 2498,
      "ĠNorth": 2499,
      "Ġevents": 2500,
      "ĠFra": 2501,
      "Ġexe": 2502,
      "ports": 2503,
      "eo": 2504,
      "bs": 2505,
      "Ġleading": 2506,
      "ets": 2507,
      "Ġ40": 2508,
      "Ġsce": 2509,
      "ĠSta": 2510,
      "du": 2511,
      "dern": 2512,
      "Ġcasino": 2513,
      "rative": 2514,
      "Ġcontact": 2515,
      "Ġcustomers": 2516,
      "Ġupon": 2517,
      "Ġsimply": 2518,
      "Ġcruc": 2519,
      "Ġdes": 2520,
      "Ġple": 2521,
      "Ġcompu": 2522,
      "ĠCan": 2523,
      "Ġincludes": 2524,
      "Ġtw": 2525,
      "Ġbeha": 2526,
      "Ġrespons": 2527,
      "ĠFa": 2528,
      "ehe": 2529,
      "ots": 2530,
      "tee": 2531,
      "gic": 2532,
      "Ġago": 2533,
      "Ġsoftware": 2534,
      "Ġrecogn": 2535,
      "Ġmach": 2536,
      "Ġ-d": 2537,
      "ruction": 2538,
      "Ġpain": 2539,
      "Ġmatch": 2540,
      "Ġcontinu": 2541,
      "ince": 2542,
      "ĠGu": 2543,
      "Ġcontribu": 2544,
      "Ġinflue": 2545,
      "Ġtreatment": 2546,
      "Ġblog": 2547,
      "Ġill": 2548,
      "place": 2549,
      "ĠDr": 2550,
      "Ġeveryone": 2551,
      "Ġanim": 2552,
      "ished": 2553,
      "Ġproblems": 2554,
      "Ġproba": 2555,
      "Ġhowever": 2556,
      "ounter": 2557,
      "Ġmemo": 2558,
      "Ġtal": 2559,
      "Ġintroduc": 2560,
      "ka": 2561,
      "Ġwent": 2562,
      "Ġcustomer": 2563,
      "ivity": 2564,
      "Ġ).ĊĊ": 2565,
      "Ġplayers": 2566,
      "member": 2567,
      "Ġanything": 2568,
      "posed": 2569,
      "Ġexplo": 2570,
      "urance": 2571,
      "ĠCom": 2572,
      "Ġidea": 2573,
      "Ġprep": 2574,
      "Ġengine": 2575,
      "irt": 2576,
      "ously": 2577,
      "ger": 2578,
      "Ġcrucial": 2579,
      "Ġlevels": 2580,
      "Ġbad": 2581,
      "Ġneeded": 2582,
      "Ġbelow": 2583,
      "Ġpromo": 2584,
      "Ġemb": 2585,
      "oud": 2586,
      "Ġblood": 2587,
      "Ġsat": 2588,
      "Ġalter": 2589,
      "Ġdisea": 2590,
      "Ġtre": 2591,
      "Ġknowledge": 2592,
      "OR": 2593,
      "Ġhalf": 2594,
      "Ġful": 2595,
      "AN": 2596,
      "Ġweight": 2597,
      "Ġmodel": 2598,
      "Ġstat": 2599,
      "Ġdocu": 2600,
      "Ġpercent": 2601,
      "leb": 2602,
      "Ġ#": 2603,
      "lev": 2604,
      "mat": 2605,
      "Ġ-a": 2606,
      "Ġconditions": 2607,
      "Ġlay": 2608,
      "Ġinitial": 2609,
      "Ġdraw": 2610,
      "ĠService": 2611,
      "ĠAf": 2612,
      "istic": 2613,
      "Ġadditional": 2614,
      "Ġways": 2615,
      "ability": 2616,
      "Ġbenefits": 2617,
      "ĠOr": 2618,
      "ball": 2619,
      "Ġreading": 2620,
      "Ġparticularly": 2621,
      "Ġaccording": 2622,
      "Ġquite": 2623,
      "Ġstaff": 2624,
      "ĠReg": 2625,
      "Ġwords": 2626,
      "essed": 2627,
      "ĠEurope": 2628,
      "Ġrecent": 2629,
      "Ġregular": 2630,
      "itive": 2631,
      "Ġyourself": 2632,
      "ĠCal": 2633,
      "Ġwonder": 2634,
      "Ġfront": 2635,
      "Ġ-ba": 2636,
      "Ġrespe": 2637,
      "ĠJust": 2638,
      "ĠSchool": 2639,
      "ĠInc": 2640,
      "Ġavoid": 2641,
      "Ġexcelle": 2642,
      "arding": 2643,
      "Ġsecurity": 2644,
      "iable": 2645,
      "Ġcenter": 2646,
      "solu": 2647,
      "Ġcompet": 2648,
      "ysis": 2649,
      "Ġfoot": 2650,
      "Ġencou": 2651,
      "Ġrate": 2652,
      "yo": 2653,
      "aint": 2654,
      "Ġcomplex": 2655,
      "nsion": 2656,
      "Ġoccur": 2657,
      "Ġten": 2658,
      "Ġsetting": 2659,
      "hind": 2660,
      "book": 2661,
      "Ġfamil": 2662,
      "itch": 2663,
      "Ġfilm": 2664,
      "Ġstri": 2665,
      "itche": 2666,
      "Ġfall": 2667,
      "ried": 2668,
      "coming": 2669,
      "Ġsal": 2670,
      "nged": 2671,
      "ided": 2672,
      "grams": 2673,
      "Ġdifference": 2674,
      "rable": 2675,
      "Ġtarge": 2676,
      "Ġfl": 2677,
      "Ġsmo": 2678,
      "sl": 2679,
      "Ġgl": 2680,
      "icro": 2681,
      "Ġusually": 2682,
      "etty": 2683,
      "new": 2684,
      "Ġ-to": 2685,
      "vert": 2686,
      "Ġability": 2687,
      "Ġchoose": 2688,
      "Ġvisit": 2689,
      "ĠStates": 2690,
      "Ġpositive": 2691,
      "Ġcolor": 2692,
      "ĠHigh": 2693,
      "Th": 2694,
      "iring": 2695,
      "Ġreason": 2696,
      "Ġskin": 2697,
      "Ġcau": 2698,
      "Ġaction": 2699,
      "Ġveh": 2700,
      "gen": 2701,
      "mpo": 2702,
      "Ġpaper": 2703,
      "Ġtrying": 2704,
      "ĠState": 2705,
      "Ġlan": 2706,
      "irst": 2707,
      "Ġmethod": 2708,
      "Ġloss": 2709,
      "Ġturn": 2710,
      "Ġextra": 2711,
      "ĠFrom": 2712,
      "sses": 2713,
      "Ġemail": 2714,
      "Ġchoice": 2715,
      "Ġphysical": 2716,
      "ĠCou": 2717,
      "Ġfel": 2718,
      "Ġallows": 2719,
      "nique": 2720,
      "oll": 2721,
      "pers": 2722,
      "ĠIns": 2723,
      "Ġapplication": 2724,
      "Ġmatter": 2725,
      "ĠNational": 2726,
      "Ġfig": 2727,
      "ĠFr": 2728,
      "Ġpractice": 2729,
      "Ġdating": 2730,
      "tended": 2731,
      "Ġstyle": 2732,
      "ĠOc": 2733,
      "ĠSho": 2734,
      "ival": 2735,
      "mand": 2736,
      "Ġsea": 2737,
      "lect": 2738,
      "Ġexam": 2739,
      "Ġbeautiful": 2740,
      "Ġthroughout": 2741,
      "Ġea": 2742,
      "lot": 2743,
      "Ġlocation": 2744,
      "Ġ-y": 2745,
      "Ġpers": 2746,
      "Ġexte": 2747,
      "Ġglobal": 2748,
      "Ġsix": 2749,
      "Ġclaim": 2750,
      "Ġappear": 2751,
      "rica": 2752,
      "Ġcolla": 2753,
      "Ġalmost": 2754,
      "Ġtour": 2755,
      "ink": 2756,
      "Ġfile": 2757,
      "Ġtrue": 2758,
      "Ġ23": 2759,
      "Ġreaso": 2760,
      "Ġprec": 2761,
      "aced": 2762,
      "Ġtaken": 2763,
      "Ġut": 2764,
      "Ġplease": 2765,
      "Ġsense": 2766,
      "oil": 2767,
      "Ġbase": 2768,
      "Ġrad": 2769,
      "Ġnecessary": 2770,
      "Ġrecommend": 2771,
      "pri": 2772,
      "Ġmix": 2773,
      "Ġdeath": 2774,
      "Ġfinal": 2775,
      "Ġopportunity": 2776,
      "like": 2777,
      "Ġmedical": 2778,
      "ĠWorld": 2779,
      "Ġstep": 2780,
      "Ġpoints": 2781,
      "Ġisn": 2782,
      "Ġconcer": 2783,
      "Ġdaily": 2784,
      "Ġelse": 2785,
      "ade": 2786,
      "ool": 2787,
      "Ġtotal": 2788,
      "Ġbehind": 2789,
      "Ġproduction": 2790,
      "Ġmean": 2791,
      "Ġcri": 2792,
      "tively": 2793,
      "Ġlower": 2794,
      "put": 2795,
      "Ġminim": 2796,
      "The": 2797,
      "ĠMed": 2798,
      "ĠAust": 2799,
      "Ġbal": 2800,
      "Ġz": 2801,
      "Ġsafety": 2802,
      "Ġtypes": 2803,
      "Ġoil": 2804,
      "Ġ-based": 2805,
      "ĠGra": 2806,
      "Ġport": 2807,
      "rmal": 2808,
      "Ġdiscover": 2809,
      "Ġoffering": 2810,
      "ĠRep": 2811,
      "times": 2812,
      "ley": 2813,
      "Ġcance": 2814,
      "illed": 2815,
      "Ġsum": 2816,
      "Ġreduce": 2817,
      "ix": 2818,
      "EN": 2819,
      "Ġprobably": 2820,
      "Ġcontinue": 2821,
      "Ġdeterm": 2822,
      "Ġlanguage": 2823,
      "Ġdetails": 2824,
      "Ġexpla": 2825,
      "ĠCity": 2826,
      "Ġexpect": 2827,
      "mpt": 2828,
      "scription": 2829,
      "Ġphone": 2830,
      "nuf": 2831,
      "kes": 2832,
      "ĠKe": 2833,
      "ĠHealth": 2834,
      "Ġtell": 2835,
      "ĠOver": 2836,
      "Ġmov": 2837,
      "ĠBar": 2838,
      "lying": 2839,
      "Ġsl": 2840,
      "Ġacco": 2841,
      "Ġ...ĊĊ": 2842,
      "Ġbuild": 2843,
      "irs": 2844,
      "Ġmultiple": 2845,
      "Ġgeneral": 2846,
      "Ġreturn": 2847,
      "Ġresources": 2848,
      "ĠHar": 2849,
      "Ġcurrently": 2850,
      "AS": 2851,
      "ĠTH": 2852,
      "Ġexplore": 2853,
      "ĠPart": 2854,
      "Ġarticle": 2855,
      "Ġcannot": 2856,
      "isting": 2857,
      "Ġdefin": 2858,
      "Ġlink": 2859,
      "Ġinno": 2860,
      "Ġdiv": 2861,
      "tend": 2862,
      "ID": 2863,
      "rature": 2864,
      "Ġagree": 2865,
      "Ġworth": 2866,
      "Ġbot": 2867,
      "roo": 2868,
      "Ġtold": 2869,
      "Ġplatform": 2870,
      "acks": 2871,
      "ison": 2872,
      "Ġattr": 2873,
      "Ġrecor": 2874,
      "gies": 2875,
      "ĠCount": 2876,
      "ĠSep": 2877,
      "ĠCO": 2878,
      "Ġcirc": 2879,
      "ima": 2880,
      "Ġbir": 2881,
      "Ġlonger": 2882,
      "vy": 2883,
      "itable": 2884,
      "ublic": 2885,
      "Ġdigital": 2886,
      "Ġ-b": 2887,
      "Ġregion": 2888,
      "Ġban": 2889,
      "Ġcolo": 2890,
      "ĠRu": 2891,
      "Ġbio": 2892,
      "Ġland": 2893,
      "Ġbran": 2894,
      "Ġur": 2895,
      "Ġoriginal": 2896,
      "Ġfloo": 2897,
      "Ġitems": 2898,
      "Ġprivate": 2899,
      "Ġtit": 2900,
      "Ġcomprehe": 2901,
      "eds": 2902,
      "Ġmodern": 2903,
      "ĠWhy": 2904,
      "Ġnature": 2905,
      "ĠBu": 2906,
      "Ġinside": 2907,
      "Ġtools": 2908,
      "era": 2909,
      "hird": 2910,
      "Ġthird": 2911,
      "ĠSun": 2912,
      "Ġdeep": 2913,
      "Ġaspe": 2914,
      "Ġadded": 2915,
      "sage": 2916,
      "Ġcode": 2917,
      "Ġaf": 2918,
      "Ġnothing": 2919,
      "ĠRec": 2920,
      "ndo": 2921,
      "Ġfore": 2922,
      "Ġofficial": 2923,
      "stance": 2924,
      "asses": 2925,
      "oups": 2926,
      "Ġcreated": 2927,
      "pende": 2928,
      "rates": 2929,
      "Ġemployee": 2930,
      "Ġtakes": 2931,
      "Ġemo": 2932,
      "cho": 2933,
      "Ġdecision": 2934,
      "Ġdate": 2935,
      "Ġvariety": 2936,
      "Ġlives": 2937,
      "urch": 2938,
      "eat": 2939,
      "Ġoutside": 2940,
      "Ġdest": 2941,
      "vention": 2942,
      "Ġobser": 2943,
      "Ġseems": 2944,
      "____": 2945,
      "sound": 2946,
      "Ġtouch": 2947,
      "ĠPar": 2948,
      "dom": 2949,
      "ĠEnglish": 2950,
      "Ġtechnique": 2951,
      "Ġpatients": 2952,
      "âĢ": 2953,
      "Ġdrive": 2954,
      "Ġtowards": 2955,
      "zed": 2956,
      "Ġexcellent": 2957,
      "ĠWar": 2958,
      "Ġoption": 2959,
      "Ġprimary": 2960,
      "lines": 2961,
      "Ġstudent": 2962,
      "Ġcharge": 2963,
      "Ġemer": 2964,
      "icles": 2965,
      "ĠFre": 2966,
      "Ġcases": 2967,
      "Ġsound": 2968,
      "----": 2969,
      "Ġatte": 2970,
      "isf": 2971,
      "Ġattention": 2972,
      "Ġparents": 2973,
      "ĠQu": 2974,
      "ested": 2975,
      "Ġnews": 2976,
      "Ġtu": 2977,
      "ED": 2978,
      "bling": 2979,
      "Ġenhance": 2980,
      "Ġ`": 2981,
      "Ġterms": 2982,
      "aches": 2983,
      "Ġceleb": 2984,
      "Ġpick": 2985,
      "irit": 2986,
      "ĠYork": 2987,
      "Ġweeks": 2988,
      "Ġmaterials": 2989,
      "Ġdefe": 2990,
      "Ġhol": 2991,
      "Ġthemselves": 2992,
      "Ġdeliver": 2993,
      "alu": 2994,
      "Ġanyone": 2995,
      "Ġhelps": 2996,
      "Ġlegal": 2997,
      "hone": 2998,
      "len": 2999,
      "IS": 3000,
      "Ġclean": 3001,
      "hood": 3002,
      "Ġer": 3003,
      "Ġ)Ċ": 3004,
      "Ġunc": 3005,
      "iation": 3006,
      "Ġgrea": 3007,
      "tain": 3008,
      "Ġeffects": 3009,
      "Ġshows": 3010,
      "Ġgam": 3011,
      "squ": 3012,
      "ock": 3013,
      "Ġhair": 3014,
      "Ġreque": 3015,
      "Ġaverage": 3016,
      "Ġ\"I": 3017,
      "ĠComp": 3018,
      "Ġbrand": 3019,
      "Ġvac": 3020,
      "Ġask": 3021,
      "Ġbehav": 3022,
      "Ġtempe": 3023,
      "Ġcreating": 3024,
      "Ġwanted": 3025,
      "Ġsites": 3026,
      "chedu": 3027,
      "Ġhot": 3028,
      "ĠEar": 3029,
      "ĠWill": 3030,
      "ultural": 3031,
      "Ġcomputer": 3032,
      "actions": 3033,
      "Ġcoming": 3034,
      "Ġforward": 3035,
      "Ġnice": 3036,
      "Ġfreque": 3037,
      "ĠEn": 3038,
      "let": 3039,
      "nta": 3040,
      "mod": 3041,
      "ĠKa": 3042,
      "AL": 3043,
      "zz": 3044,
      "ĠCor": 3045,
      "Ġinstall": 3046,
      "Ġed": 3047,
      "ering": 3048,
      "Ġmoment": 3049,
      "Ġetc": 3050,
      "ĠYe": 3051,
      "Ġinj": 3052,
      "Ġmarketing": 3053,
      "Ġinsp": 3054,
      "core": 3055,
      "Ġinstead": 3056,
      "iling": 3057,
      "seque": 3058,
      "ĠApr": 3059,
      "Ġproper": 3060,
      "Ġ-year": 3061,
      "Ġprograms": 3062,
      "Ġexact": 3063,
      "Ġpretty": 3064,
      "uth": 3065,
      "Ġwoman": 3066,
      "sales": 3067,
      "Ġaim": 3068,
      "Ġdep": 3069,
      "Ġ?\"": 3070,
      "Ġrunning": 3071,
      "rict": 3072,
      "Ġreve": 3073,
      "ĠIndia": 3074,
      "comes": 3075,
      "Ġfire": 3076,
      "aging": 3077,
      "ĠAug": 3078,
      "Ġanaly": 3079,
      "whe": 3080,
      "Ġstop": 3081,
      "ĠCons": 3082,
      "Ġproduce": 3083,
      "Ġtree": 3084,
      "ik": 3085,
      "ĠMost": 3086,
      "Ġfeed": 3087,
      "Ġbooks": 3088,
      "cra": 3089,
      "Ġeasily": 3090,
      "Ġsleep": 3091,
      "Ġheld": 3092,
      "Ġ|": 3093,
      "Ġleaders": 3094,
      "Ġsource": 3095,
      "Ġready": 3096,
      "Ġasked": 3097,
      "ĠLea": 3098,
      "ntal": 3099,
      "ctions": 3100,
      "inary": 3101,
      "Ġimmed": 3102,
      "istent": 3103,
      "ounts": 3104,
      "Ġresponse": 3105,
      "Ġcosts": 3106,
      "eet": 3107,
      "Ġrelated": 3108,
      "easing": 3109,
      "Ġbox": 3110,
      "Ġkids": 3111,
      "Ġoptim": 3112,
      "Ġcredit": 3113,
      "ĠFirst": 3114,
      "ĠRese": 3115,
      "ĠPol": 3116,
      "sco": 3117,
      "ctor": 3118,
      "Ġones": 3119,
      "Ġtraditional": 3120,
      "Ġsales": 3121,
      "Ġexerc": 3122,
      "Ġarri": 3123,
      "Ġfinding": 3124,
      "Ġleave": 3125,
      "Ġstandard": 3126,
      "Ġsoo": 3127,
      "ĠInst": 3128,
      "Ġmanuf": 3129,
      "Ġ26": 3130,
      "reasing": 3131,
      "Ġconsidered": 3132,
      "Ġdegree": 3133,
      "Ġachieve": 3134,
      "arily": 3135,
      "bile": 3136,
      "Ġadj": 3137,
      "Ġapprec": 3138,
      "Ġengage": 3139,
      "Ġcouple": 3140,
      "Ġ28": 3141,
      "Ġversion": 3142,
      "oting": 3143,
      "ailed": 3144,
      "wn": 3145,
      "illing": 3146,
      "Ġsepar": 3147,
      "Ġdamage": 3148,
      "Ġexpert": 3149,
      "ĠCana": 3150,
      "oul": 3151,
      "Ġsoon": 3152,
      "know": 3153,
      "ĠDay": 3154,
      "Ġquickly": 3155,
      "wher": 3156,
      "ĠArt": 3157,
      "where": 3158,
      "Ġremember": 3159,
      "Ġplaying": 3160,
      "ĠEvery": 3161,
      "rien": 3162,
      "Ġreceived": 3163,
      "Ġrev": 3164,
      "Ġdemonst": 3165,
      "ĠUse": 3166,
      "aling": 3167,
      "Ġgroups": 3168,
      "Ġclients": 3169,
      "istration": 3170,
      "Ġwal": 3171,
      "Ġmaintain": 3172,
      "Ġsurface": 3173,
      "Ġactivity": 3174,
      "Ġsong": 3175,
      "Ġnetwork": 3176,
      "Ġmethods": 3177,
      "IT": 3178,
      "ĠAddition": 3179,
      "active": 3180,
      "rown": 3181,
      "Ġsolution": 3182,
      "ĠDep": 3183,
      "Ġwish": 3184,
      "olution": 3185,
      "ute": 3186,
      "slow": 3187,
      "Ġrecently": 3188,
      "Ġoverall": 3189,
      "Ġword": 3190,
      "Ġtypically": 3191,
      "Ġhor": 3192,
      "Ġconduc": 3193,
      "Ġ27": 3194,
      "oogle": 3195,
      "Ġhighly": 3196,
      "vid": 3197,
      "Ġinsurance": 3198,
      "Ġslow": 3199,
      "Ġground": 3200,
      "Ġchallenges": 3201,
      "ĠOff": 3202,
      "leased": 3203,
      "rant": 3204,
      "ief": 3205,
      "Ġprojects": 3206,
      "ĠMany": 3207,
      "Ġgoal": 3208,
      "Ġproces": 3209,
      "Ġexperie": 3210,
      "Ġcountries": 3211,
      "Ġdedic": 3212,
      "isions": 3213,
      "Ġitself": 3214,
      "lub": 3215,
      "Ġol": 3216,
      "Ġ-in": 3217,
      "ĠSy": 3218,
      "Ġul": 3219,
      "Ġmember": 3220,
      "ifo": 3221,
      "Ġnote": 3222,
      "verse": 3223,
      "Ġadvant": 3224,
      "Ġlocated": 3225,
      "sol": 3226,
      "Ġensuring": 3227,
      "Ġsus": 3228,
      "Ġexpa": 3229,
      "inesses": 3230,
      "Ġ60": 3231,
      "point": 3232,
      "Ġconvers": 3233,
      "Ġpolicy": 3234,
      "Ġfactors": 3235,
      "Ġpressure": 3236,
      "ĠAct": 3237,
      "ĠHu": 3238,
      "ĠMon": 3239,
      "Ġaffec": 3240,
      "ipment": 3241,
      "Ġdr": 3242,
      "hib": 3243,
      "ĠThen": 3244,
      "wers": 3245,
      "Ġcaree": 3246,
      "Ġdisplay": 3247,
      "Ġmer": 3248,
      "Ġhear": 3249,
      "ĠAfrica": 3250,
      "ĠPlease": 3251,
      "Ġinvolved": 3252,
      "Ġpurchase": 3253,
      "Ġfresh": 3254,
      "top": 3255,
      "ĠBra": 3256,
      "nance": 3257,
      "Ġparty": 3258,
      "Ġcareer": 3259,
      "Ġ@": 3260,
      "ĠPla": 3261,
      "Ġfix": 3262,
      "Ġhit": 3263,
      "ĠManage": 3264,
      "Ġanalysis": 3265,
      "Ġrefer": 3266,
      "kets": 3267,
      "lier": 3268,
      "Ġfish": 3269,
      ".)": 3270,
      "Ġexperiences": 3271,
      "ĠMarch": 3272,
      "Ġprogress": 3273,
      "Ġfine": 3274,
      "ĠMc": 3275,
      "Ġwall": 3276,
      "Ġtalk": 3277,
      "hy": 3278,
      "Ġep": 3279,
      "range": 3280,
      "scrib": 3281,
      "mples": 3282,
      "atego": 3283,
      "set": 3284,
      "Ġideas": 3285,
      "hou": 3286,
      "ncies": 3287,
      "ĠĠ": 3288,
      "Ġwarm": 3289,
      "Ġnational": 3290,
      "ĠCenter": 3291,
      "ighting": 3292,
      "Ġled": 3293,
      "lia": 3294,
      "Ġess": 3295,
      "tho": 3296,
      "ground": 3297,
      "nn": 3298,
      "ridge": 3299,
      "bert": 3300,
      "ĠSm": 3301,
      "Ġnut": 3302,
      "Ġterm": 3303,
      "Ġacqu": 3304,
      "IC": 3305,
      "Ġinternet": 3306,
      "ĠAre": 3307,
      "ĠTime": 3308,
      "Ġ\",": 3309,
      "sse": 3310,
      "Ġinternational": 3311,
      "Ġaware": 3312,
      "ĠGer": 3313,
      "Ġtravel": 3314,
      "Ġprior": 3315,
      "Ġcustom": 3316,
      "Ġsituation": 3317,
      "riend": 3318,
      "ĠChi": 3319,
      "ham": 3320,
      "AC": 3321,
      "Ġfeature": 3322,
      "urs": 3323,
      "ĠLet": 3324,
      "Ġnumer": 3325,
      "Ġsatisf": 3326,
      "Ġdisease": 3327,
      "Ġsubst": 3328,
      "Ġincluded": 3329,
      "ract": 3330,
      "Ġseri": 3331,
      "Ġhands": 3332,
      "ĠAustral": 3333,
      "Ġhealthy": 3334,
      "Ġintegra": 3335,
      "ying": 3336,
      "Ġ.)": 3337,
      "lied": 3338,
      "Ġannou": 3339,
      "Ġincreased": 3340,
      "ulations": 3341,
      "itude": 3342,
      "tom": 3343,
      "ĠColle": 3344,
      "Ġ-co": 3345,
      "Ġeffect": 3346,
      "Ġparts": 3347,
      "Ġdiver": 3348,
      "Ġbud": 3349,
      "ĠBrit": 3350,
      "ĠOpe": 3351,
      "Ġwel": 3352,
      "heo": 3353,
      "ĠJune": 3354,
      "icip": 3355,
      "ĠMin": 3356,
      "**": 3357,
      "Ġseeking": 3358,
      "Ġjourney": 3359,
      "Ġpolitical": 3360,
      "Ġcollection": 3361,
      "itors": 3362,
      "Ġmyself": 3363,
      "mark": 3364,
      "Ġlif": 3365,
      "Ġpatter": 3366,
      "OT": 3367,
      "nitor": 3368,
      "ĠUp": 3369,
      "Ġmorning": 3370,
      "Ġmeaning": 3371,
      "ĠEl": 3372,
      "Ġhappy": 3373,
      "Ġvic": 3374,
      "Ġlack": 3375,
      "Ġrecord": 3376,
      "Ġsubject": 3377,
      "Ġdirectly": 3378,
      "Ġcomprehensive": 3379,
      "Ġmana": 3380,
      "Ġplans": 3381,
      "schedu": 3382,
      "ĠApril": 3383,
      "Ġlatest": 3384,
      "Ġmachine": 3385,
      "iding": 3386,
      "Ġwindow": 3387,
      "ya": 3388,
      "Ġexception": 3389,
      "....": 3390,
      "ĠSan": 3391,
      "Ġvio": 3392,
      "Ġbusinesses": 3393,
      "Ġ-de": 3394,
      "Ġopportunities": 3395,
      "Ġtheo": 3396,
      "Ġschedu": 3397,
      "nses": 3398,
      "Ġinvestig": 3399,
      "Ġsqu": 3400,
      "Ġcompone": 3401,
      "Ġalterna": 3402,
      "ĠDon": 3403,
      "Ġspeed": 3404,
      "Ã©": 3405,
      "Ġadmin": 3406,
      "aries": 3407,
      "Ġcommunication": 3408,
      "ĠImp": 3409,
      "Ġeconomic": 3410,
      "Ġ35": 3411,
      "ĠBlack": 3412,
      "Ġscient": 3413,
      "echan": 3414,
      "Ġwrite": 3415,
      "ĠRed": 3416,
      "Ġideal": 3417,
      "Ġchance": 3418,
      "Ġcollabo": 3419,
      "hera": 3420,
      "Ġcell": 3421,
      "Ġsaw": 3422,
      "Ġbuilt": 3423,
      "ĠChar": 3424,
      "Ġscience": 3425,
      "ĠAir": 3426,
      "ĠFree": 3427,
      "ĠWho": 3428,
      "Ġanswer": 3429,
      "Ġmother": 3430,
      "Ġexec": 3431,
      "umb": 3432,
      "staura": 3433,
      "ris": 3434,
      "Ġenable": 3435,
      "ĠEven": 3436,
      "Ġ198": 3437,
      "Ġapart": 3438,
      "Ġthera": 3439,
      "ĠWhich": 3440,
      "zy": 3441,
      "Ġcollege": 3442,
      "Ġextreme": 3443,
      "acking": 3444,
      "Ġplant": 3445,
      "Ġlost": 3446,
      "Ġassociated": 3447,
      "Ġlimited": 3448,
      "ĠMus": 3449,
      "mas": 3450,
      "Ġsummer": 3451,
      "Ġidentify": 3452,
      "ffer": 3453,
      "Ġsent": 3454,
      "Ġspea": 3455,
      "Ġpath": 3456,
      "ĠUK": 3457,
      "Ġloa": 3458,
      "mental": 3459,
      "ĠMr": 3460,
      "ĠGeo": 3461,
      "iction": 3462,
      "icie": 3463,
      "Ġsolutions": 3464,
      "Ġhistor": 3465,
      "Ġpurpose": 3466,
      "ows": 3467,
      "head": 3468,
      "Ġphotograph": 3469,
      "Ġeyes": 3470,
      "Ġexpected": 3471,
      "Ġincreasing": 3472,
      "ĠGet": 3473,
      "Ġwritten": 3474,
      "rry": 3475,
      "Ġ31": 3476,
      "Ġtrack": 3477,
      "ĠSha": 3478,
      "mission": 3479,
      "ĠEd": 3480,
      "vig": 3481,
      "Ġmobile": 3482,
      "Ġthinking": 3483,
      "ĠGoogle": 3484,
      "Ġama": 3485,
      "Ġ',": 3486,
      "uel": 3487,
      "yon": 3488,
      "Ġva": 3489,
      "ĠâĢ¢": 3490,
      "Ġimm": 3491,
      "pan": 3492,
      "ĠJuly": 3493,
      "Ġsun": 3494,
      "Ġ29": 3495,
      "Ġculture": 3496,
      "Ġstress": 3497,
      "Ġassess": 3498,
      "Ġsuccessful": 3499,
      "mpl": 3500,
      "Ġsess": 3501,
      "tember": 3502,
      "ĠAlso": 3503,
      "eg": 3504,
      "Ġ\".": 3505,
      "Ġles": 3506,
      "ĠWest": 3507,
      "Ġdel": 3508,
      "haps": 3509,
      "Ġrequirements": 3510,
      "toms": 3511,
      "Ġstarting": 3512,
      "Ġfast": 3513,
      "Ġfully": 3514,
      "Ġfair": 3515,
      "Ġdog": 3516,
      "Ġsave": 3517,
      "ern": 3518,
      "ulate": 3519,
      "Ġgreen": 3520,
      "Ġsurr": 3521,
      "ĠFeb": 3522,
      "Ġgoe": 3523,
      "Ġqual": 3524,
      "za": 3525,
      "Ġnar": 3526,
      "Ġwrong": 3527,
      "Ġbegan": 3528,
      "Ġorganization": 3529,
      "Ġgoes": 3530,
      "Ġcompared": 3531,
      "Ġsurpr": 3532,
      "wise": 3533,
      "Ġutil": 3534,
      "Ġsignificantly": 3535,
      "bes": 3536,
      "Ġdiet": 3537,
      "Ġformer": 3538,
      "Ġmeeting": 3539,
      "Ġcry": 3540,
      "ĠPresident": 3541,
      "acing": 3542,
      "ĠEach": 3543,
      "Ġprefer": 3544,
      "mar": 3545,
      "ĠFri": 3546,
      "Ġcorrect": 3547,
      "Ġgas": 3548,
      "ibly": 3549,
      "ĠYes": 3550,
      "Ġsecure": 3551,
      "Ġdeveloped": 3552,
      "ĠKo": 3553,
      "Ġallowing": 3554,
      "nus": 3555,
      "Ġrelease": 3556,
      "Ġwalk": 3557,
      "ita": 3558,
      "Ġwri": 3559,
      "ĠBus": 3560,
      "ĠOnce": 3561,
      "ounding": 3562,
      "Ġestablish": 3563,
      "ĠSw": 3564,
      "RE": 3565,
      "Ġstates": 3566,
      "Ġdevices": 3567,
      "ĠHouse": 3568,
      "Ġ-h": 3569,
      "Ġplaye": 3570,
      "Ġindic": 3571,
      "itely": 3572,
      "Ġplayer": 3573,
      "Ġplanning": 3574,
      "nuary": 3575,
      "Ġsometimes": 3576,
      "Ġroad": 3577,
      "standing": 3578,
      "commod": 3579,
      "Ġ500": 3580,
      "ĠHome": 3581,
      "itchen": 3582,
      "Ġreported": 3583,
      "Ġrates": 3584,
      "gno": 3585,
      "tober": 3586,
      "ĠSeptember": 3587,
      "ĠProf": 3588,
      "ĠCent": 3589,
      "ĠMan": 3590,
      "Ġmas": 3591,
      "uly": 3592,
      "Ġdry": 3593,
      "Ġsens": 3594,
      "ux": 3595,
      "forms": 3596,
      "ĠMet": 3597,
      "Ġsection": 3598,
      "Ġheat": 3599,
      "Ġaudience": 3600,
      "ĠTV": 3601,
      "Ġnumerous": 3602,
      "Ġconven": 3603,
      "Ġtown": 3604,
      "Ġapplications": 3605,
      "ĠAugust": 3606,
      "Ġstrug": 3607,
      "ones": 3608,
      "Ġvol": 3609,
      "ĠCommun": 3610,
      "Ġspa": 3611,
      "Ġbath": 3612,
      "test": 3613,
      "Ġfem": 3614,
      "Ġbla": 3615,
      "Ġfavorite": 3616,
      "Ġrob": 3617,
      "Ġevidence": 3618,
      "ĠPark": 3619,
      "Ġmass": 3620,
      "ĠCounty": 3621,
      "ĠIts": 3622,
      "Ġcamp": 3623,
      "ides": 3624,
      "ĠKing": 3625,
      "Ġindepende": 3626,
      "Ġequipment": 3627,
      "ĠSk": 3628,
      "Ġcompletely": 3629,
      "ĠDir": 3630,
      "Ġdiverse": 3631,
      "ĠUnder": 3632,
      "Ġfelt": 3633,
      "Ġworked": 3634,
      "did": 3635,
      "Ġprinc": 3636,
      "Ġbecame": 3637,
      "yond": 3638,
      "ronic": 3639,
      "ĠTrans": 3640,
      "yna": 3641,
      "Ġtrust": 3642,
      "Ġpiece": 3643,
      "bon": 3644,
      "ĠWell": 3645,
      "Ġrights": 3646,
      "Ġvalu": 3647,
      "Ġbeyond": 3648,
      "Ġuses": 3649,
      "Ġ!!": 3650,
      "Ġevalu": 3651,
      "Ġspirit": 3652,
      "Ġye": 3653,
      "Ġhotel": 3654,
      "ĠBest": 3655,
      "ĠJanuary": 3656,
      "Ġstructure": 3657,
      "minal": 3658,
      "Ġapproxim": 3659,
      "ĠAny": 3660,
      "Ġ-S": 3661,
      "Ġgoals": 3662,
      "ipped": 3663,
      "Ġlooks": 3664,
      "Ġinstance": 3665,
      "ĠWind": 3666,
      "inge": 3667,
      "Ġpartners": 3668,
      "Ġdownload": 3669,
      "venue": 3670,
      "Ġperform": 3671,
      "Ġdistribu": 3672,
      "ncil": 3673,
      "iciency": 3674,
      "Ġ45": 3675,
      "OS": 3676,
      "Ġcells": 3677,
      "cade": 3678,
      "Ġbirth": 3679,
      "Ġinterested": 3680,
      "Ġ-up": 3681,
      "Ġmod": 3682,
      "Ġassu": 3683,
      "Ġspo": 3684,
      "more": 3685,
      "Ġboard": 3686,
      "eca": 3687,
      "Ġstudies": 3688,
      "Ġcomfortable": 3689,
      "Ġshared": 3690,
      "dra": 3691,
      "ives": 3692,
      "Ġappropri": 3693,
      "Ġimages": 3694,
      "lation": 3695,
      "mercial": 3696,
      "Ġdistinc": 3697,
      "yer": 3698,
      "Ġpor": 3699,
      "mans": 3700,
      "ederal": 3701,
      "Ġima": 3702,
      "Ġpublished": 3703,
      "Ġjud": 3704,
      "rast": 3705,
      "eep": 3706,
      "Ġnormal": 3707,
      "ĠDespite": 3708,
      "ĠOctober": 3709,
      "ĠAI": 3710,
      "has": 3711,
      "Ġmechan": 3712,
      "Ġchem": 3713,
      "ĠResearch": 3714,
      "ĠTheir": 3715,
      "Ġprem": 3716,
      "ige": 3717,
      "Ġserve": 3718,
      "Ġdoor": 3719,
      "eed": 3720,
      "Ġgrowing": 3721,
      "iner": 3722,
      "acts": 3723,
      "sil": 3724,
      "lies": 3725,
      "Ġneigh": 3726,
      "Ġarch": 3727,
      "Ġcertainly": 3728,
      "Ġsymp": 3729,
      "ndon": 3730,
      "Ġimplement": 3731,
      "Ġactive": 3732,
      "cas": 3733,
      "Ġ32": 3734,
      "Ġcourt": 3735,
      "Ġschools": 3736,
      "Ġstrategy": 3737,
      "change": 3738,
      "sports": 3739,
      "Ġprices": 3740,
      "Ġcool": 3741,
      "Ġfeeling": 3742,
      "ĠPM": 3743,
      "ĠChina": 3744,
      "une": 3745,
      "Ġstrategies": 3746,
      "Ġcancer": 3747,
      "ulated": 3748,
      "rip": 3749,
      "ĠOut": 3750,
      "izations": 3751,
      "Ġencourage": 3752,
      "care": 3753,
      "lusion": 3754,
      "Ġblock": 3755,
      "Ġfat": 3756,
      "ĠBr": 3757,
      "Ġfacilit": 3758,
      "Ġvehicle": 3759,
      "Ġmessage": 3760,
      "istics": 3761,
      "ĠLoc": 3762,
      "Ġlaunch": 3763,
      "Ġrelig": 3764,
      "Ġ01": 3765,
      "Ġtrip": 3766,
      "Ġrepe": 3767,
      "rid": 3768,
      "lusive": 3769,
      "Ġcash": 3770,
      "Ġpsy": 3771,
      "vember": 3772,
      "ĠCur": 3773,
      "izes": 3774,
      "edding": 3775,
      "bur": 3776,
      "Ġfeet": 3777,
      "br": 3778,
      "idents": 3779,
      "Ġtrade": 3780,
      "Ġgets": 3781,
      "Ġdocument": 3782,
      "Ġrestaura": 3783,
      "ĠSince": 3784,
      "aller": 3785,
      "Ġfocu": 3786,
      "iar": 3787,
      "Ġbenefit": 3788,
      "Ġfamilies": 3789,
      "Ġtruly": 3790,
      "Ġsteps": 3791,
      "ycle": 3792,
      "cember": 3793,
      "ttle": 3794,
      "ĠWeb": 3795,
      "nded": 3796,
      "Ġhosp": 3797,
      "ĠSee": 3798,
      "long": 3799,
      "ĠAccording": 3800,
      "Ġefficient": 3801,
      "Ġsports": 3802,
      "ĠTy": 3803,
      "Ġrefle": 3804,
      "nings": 3805,
      "Ġhuge": 3806,
      "Ġrequires": 3807,
      "ING": 3808,
      "ĠEduc": 3809,
      "Ġstrength": 3810,
      "Ġgiving": 3811,
      "ires": 3812,
      "wide": 3813,
      "ĠPlay": 3814,
      "Ġmeasure": 3815,
      "iced": 3816,
      "nant": 3817,
      "Ġbalance": 3818,
      "gency": 3819,
      "Ġboa": 3820,
      "Ġpopulation": 3821,
      "ashing": 3822,
      "Ġcontro": 3823,
      "Ġpara": 3824,
      "Ġcampa": 3825,
      "OU": 3826,
      "Ġsold": 3827,
      "ĠAdditionally": 3828,
      "Ġpartner": 3829,
      "Ġoffered": 3830,
      "Ġaccu": 3831,
      "dro": 3832,
      "Ġfear": 3833,
      "Ġdead": 3834,
      "Ġrace": 3835,
      "ivil": 3836,
      "Ġapply": 3837,
      "Ġgives": 3838,
      "ably": 3839,
      "met": 3840,
      "ites": 3841,
      "Ġcompo": 3842,
      "Ġ-time": 3843,
      "Ġincor": 3844,
      "Ġbasic": 3845,
      "Ġargu": 3846,
      "gon": 3847,
      "ĠAbout": 3848,
      "Ġ-st": 3849,
      "Ġpoor": 3850,
      "Ġspecies": 3851,
      "Ġbrain": 3852,
      "Ġrich": 3853,
      "Ġmovie": 3854,
      "ĠTech": 3855,
      "Ġdete": 3856,
      "using": 3857,
      "Ġdark": 3858,
      "Ġcarry": 3859,
      "Ġexpress": 3860,
      "ĠLi": 3861,
      "ĠAlthough": 3862,
      "Ġconsu": 3863,
      "ĠLear": 3864,
      "Ġcapt": 3865,
      "Ġdecided": 3866,
      "Ġmaxim": 3867,
      "Ġoppo": 3868,
      "Ġinteresting": 3869,
      "ught": 3870,
      "pective": 3871,
      "Ġinstitu": 3872,
      "Ġmonitor": 3873,
      "Ġinstruc": 3874,
      "Ġproced": 3875,
      "Ġstage": 3876,
      "Ġnumbers": 3877,
      "Ġdedicated": 3878,
      "Ġdro": 3879,
      "ĠNovember": 3880,
      "Ġlands": 3881,
      "Ġmental": 3882,
      "ider": 3883,
      "formed": 3884,
      "Ġelements": 3885,
      "Ġ80": 3886,
      "ĠFriday": 3887,
      "rge": 3888,
      "vative": 3889,
      "Ġregarding": 3890,
      "ĠAno": 3891,
      "scribed": 3892,
      "ĠCho": 3893,
      "Ġsaying": 3894,
      "rator": 3895,
      "Ġ36": 3896,
      "ĠPho": 3897,
      "Ġmoving": 3898,
      "Ġwasn": 3899,
      "Ġcatego": 3900,
      "Ġinvestment": 3901,
      "wards": 3902,
      "acher": 3903,
      "offee": 3904,
      "Ġmentioned": 3905,
      "nna": 3906,
      "Ġ-C": 3907,
      "Ġscreen": 3908,
      "Ġfinish": 3909,
      "Ġap": 3910,
      "ĠDecember": 3911,
      "swe": 3912,
      "ĠOther": 3913,
      "xy": 3914,
      "Ġhour": 3915,
      "band": 3916,
      "Ġrepa": 3917,
      "nels": 3918,
      "Ġplayed": 3919,
      "Ġamazing": 3920,
      "solute": 3921,
      "arter": 3922,
      "rough": 3923,
      "yal": 3924,
      "Ġaccommod": 3925,
      "Ġremains": 3926,
      "Ġstories": 3927,
      "Ġcritical": 3928,
      "Ġmodels": 3929,
      "Ġremain": 3930,
      "Ġnega": 3931,
      "ĠJesus": 3932,
      "Ġvalues": 3933,
      "Ġfail": 3934,
      "ferences": 3935,
      "Ġdespite": 3936,
      "Ġspot": 3937,
      "vey": 3938,
      "Ġstraight": 3939,
      "Ġemployees": 3940,
      "ĠTod": 3941,
      "ua": 3942,
      "Ġessay": 3943,
      "aled": 3944,
      "ilitary": 3945,
      "Ġexperienced": 3946,
      "body": 3947,
      "Ġsust": 3948,
      "Ġ):": 3949,
      "ĠCompa": 3950,
      "Ġshown": 3951,
      "Ġmusc": 3952,
      "mented": 3953,
      "ĠSub": 3954,
      "Ġgran": 3955,
      "Ġ197": 3956,
      "artment": 3957,
      "Ġexactly": 3958,
      "EO": 3959,
      "Ġmedic": 3960,
      "Ġpatient": 3961,
      "Ġ-term": 3962,
      "Ġapproximately": 3963,
      "elated": 3964,
      "Ġplaces": 3965,
      "ughter": 3966,
      "cks": 3967,
      "Ġdouble": 3968,
      "Ġ!Ċ": 3969,
      "Ġlice": 3970,
      "Ġcross": 3971,
      "Ġinfluence": 3972,
      "Ġpowerful": 3973,
      "ĠStr": 3974,
      "Ġsurv": 3975,
      "Ġfloor": 3976,
      "Ġball": 3977,
      "Ġhone": 3978,
      "Ġprotect": 3979,
      "Ġbehavior": 3980,
      "Ġsupply": 3981,
      "Ġthou": 3982,
      "iforn": 3983,
      "ET": 3984,
      "ĠFace": 3985,
      "Ġrules": 3986,
      "rders": 3987,
      "Ġreplace": 3988,
      "Ġsil": 3989,
      "Ġhost": 3990,
      "score": 3991,
      "Ġconnection": 3992,
      "ffic": 3993,
      "Ġconsistent": 3994,
      "Ġdescri": 3995,
      "ruit": 3996,
      "itation": 3997,
      "Ġsignal": 3998,
      "Ġalthough": 3999,
      "Ġnation": 4000,
      "sons": 4001,
      "Ġdet": 4002,
      "ĠHel": 4003,
      "Ġran": 4004,
      "Ġstock": 4005,
      "stances": 4006,
      "oods": 4007,
      "Ġhimself": 4008,
      "Ġdepart": 4009,
      "porate": 4010,
      "Ġkitchen": 4011,
      "Ġhappen": 4012,
      "Ġspen": 4013,
      "wood": 4014,
      "Ġelectric": 4015,
      "neral": 4016,
      "Ġmaster": 4017,
      "Ġspend": 4018,
      "Ġ90": 4019,
      "imed": 4020,
      "Ġstuff": 4021,
      "Ġpra": 4022,
      "Ġextensive": 4023,
      "iste": 4024,
      "levant": 4025,
      "ĠDuring": 4026,
      "Ġadvice": 4027,
      "Ġafford": 4028,
      "ĠInternational": 4029,
      "Ġconstruction": 4030,
      "board": 4031,
      "Ġoutd": 4032,
      "Ġframe": 4033,
      "ĠStud": 4034,
      "Ġchea": 4035,
      "Ġdefinitely": 4036,
      "Ġround": 4037,
      "Ġswe": 4038,
      "ĠTw": 4039,
      "Ġune": 4040,
      "ĠSto": 4041,
      "ung": 4042,
      "ĠCrea": 4043,
      "rance": 4044,
      "night": 4045,
      "Ġreasons": 4046,
      "Ġplants": 4047,
      "AM": 4048,
      "Ġnearly": 4049,
      "Ġscore": 4050,
      "Ġforce": 4051,
      "Ġbank": 4052,
      "some": 4053,
      "Ġ.\"Ċ": 4054,
      "Ġpredic": 4055,
      "Ġimportance": 4056,
      "ifornia": 4057,
      "ios": 4058,
      "rian": 4059,
      "Ġcharacters": 4060,
      "ĠRuss": 4061,
      "Ġheard": 4062,
      "ord": 4063,
      "ĠSatur": 4064,
      "Ġfather": 4065,
      "Ġpolice": 4066,
      "Ġacade": 4067,
      "Ġvirt": 4068,
      "phe": 4069,
      "Ġstorage": 4070,
      "Ġopin": 4071,
      "Ġtechniques": 4072,
      "Ġlarger": 4073,
      "Ġsociety": 4074,
      "Ġincome": 4075,
      "Ġgirl": 4076,
      "Ġfirm": 4077,
      "Ġbaby": 4078,
      "Ġmaybe": 4079,
      "Ġing": 4080,
      "Ġlength": 4081,
      "Ġpul": 4082,
      "Ġestablished": 4083,
      "ĠAM": 4084,
      "Ġinfec": 4085,
      "ptions": 4086,
      "Ġadvert": 4087,
      "Ġweather": 4088,
      "Ġowners": 4089,
      "ĠVa": 4090,
      "sale": 4091,
      "Ġalone": 4092,
      "iant": 4093,
      "ok": 4094,
      "stern": 4095,
      "Ġtemperature": 4096,
      "ĠProduc": 4097,
      "inally": 4098,
      "ĠGreat": 4099,
      "Ġconcept": 4100,
      "Ġconfir": 4101,
      "Ġtransport": 4102,
      "istry": 4103,
      "ruary": 4104,
      "Ġblue": 4105,
      "force": 4106,
      "Ġcapital": 4107,
      "uting": 4108,
      "Ġreviews": 4109,
      "Ġuseful": 4110,
      "rg": 4111,
      "ĠAssoci": 4112,
      "iately": 4113,
      "iny": 4114,
      "Ġbrow": 4115,
      "Ġeasier": 4116,
      "Ġefforts": 4117,
      "Ġwaste": 4118,
      "Ġsend": 4119,
      "Ġnavig": 4120,
      "Ġunit": 4121,
      "Ġpet": 4122,
      "EC": 4123,
      "Ġrelax": 4124,
      "mporary": 4125,
      "ĠGood": 4126,
      "Ġappropriate": 4127,
      "Ġconstant": 4128,
      "Ġreleased": 4129,
      "Ġsty": 4130,
      "Ġcold": 4131,
      "Ġrelationships": 4132,
      "rote": 4133,
      "lock": 4134,
      "Ġpractices": 4135,
      "ĠReview": 4136,
      "Ġclick": 4137,
      "Ġgave": 4138,
      "Ġadjust": 4139,
      "ĠNet": 4140,
      "Ġinterview": 4141,
      "Ġregard": 4142,
      "south": 4143,
      "Ġrecommended": 4144,
      "ĠCalifornia": 4145,
      "Ġlines": 4146,
      "ION": 4147,
      "ĠGar": 4148,
      "Ġdetermine": 4149,
      "Ġadop": 4150,
      "Ġrou": 4151,
      "Ġgenerally": 4152,
      "Ġson": 4153,
      "ĠDepartment": 4154,
      "Ġlog": 4155,
      "key": 4156,
      "hate": 4157,
      "hold": 4158,
      "Ġresponsible": 4159,
      "ĠTHE": 4160,
      "lers": 4161,
      "Ġ\"W": 4162,
      "tured": 4163,
      "Ġpaid": 4164,
      "Ġrap": 4165,
      "Ġem": 4166,
      "roid": 4167,
      "Ġvolu": 4168,
      "thers": 4169,
      "ĠStar": 4170,
      "Ġthousa": 4171,
      "ĠAN": 4172,
      "Ġpotentially": 4173,
      "Ġstro": 4174,
      "sla": 4175,
      "Ġaccep": 4176,
      "Ġtrea": 4177,
      "lace": 4178,
      "Ġclin": 4179,
      "Ġanti": 4180,
      "Ġexisting": 4181,
      "Ġsmart": 4182,
      "Ġprotection": 4183,
      "Ġgain": 4184,
      "ĠStude": 4185,
      "Ġbatter": 4186,
      "Ġtarget": 4187,
      "mbol": 4188,
      "Ġgreater": 4189,
      "ĠTur": 4190,
      "Ġimpress": 4191,
      "Ġir": 4192,
      "Ġturned": 4193,
      "mitted": 4194,
      "Ġsouth": 4195,
      "Ġmag": 4196,
      "Ġperspective": 4197,
      "Ġoperation": 4198,
      "Ġbeginning": 4199,
      "ods": 4200,
      "acity": 4201,
      "ĠSyste": 4202,
      "Ġcandid": 4203,
      "Ġaspects": 4204,
      "ĠFebruary": 4205,
      "Ġsuspe": 4206,
      "Ġwait": 4207,
      "ĠHol": 4208,
      "Ġflu": 4209,
      "Ġ70": 4210,
      "ĠRead": 4211,
      "zon": 4212,
      "ĠThanks": 4213,
      "sph": 4214,
      "Ġactions": 4215,
      "Ġselection": 4216,
      "Ġcommercial": 4217,
      "ĠCas": 4218,
      "Ġrespect": 4219,
      "Ġexercise": 4220,
      "lim": 4221,
      "ĠBusiness": 4222,
      "Ġbrought": 4223,
      "logies": 4224,
      "fa": 4225,
      "Ġpeace": 4226,
      "Ġdepo": 4227,
      "Ġserious": 4228,
      "Ġsymptoms": 4229,
      "Ġdriving": 4230,
      "rief": 4231,
      "Ġvisual": 4232,
      "arante": 4233,
      "Ġspent": 4234,
      "Ġtried": 4235,
      "ecause": 4236,
      "Ġcalc": 4237,
      "ĠThank": 4238,
      "Ġtransfer": 4239,
      "Ġemphas": 4240,
      "Ġwants": 4241,
      "Ġsale": 4242,
      "itor": 4243,
      "Ġband": 4244,
      "ĠII": 4245,
      "Ġsuitable": 4246,
      "os": 4247,
      "Ġoccas": 4248,
      "oors": 4249,
      "icing": 4250,
      "Ġinvolves": 4251,
      "Ġteams": 4252,
      "Ġbul": 4253,
      "Ġ).Ċ": 4254,
      "ĠScience": 4255,
      "Ġ\\": 4256,
      "Ġteaching": 4257,
      "Ġpresence": 4258,
      "ĠOnline": 4259,
      "Ġmovement": 4260,
      "Ġpm": 4261,
      "nical": 4262,
      "Ġvoice": 4263,
      "ceed": 4264,
      "ĠIN": 4265,
      "ĠOffice": 4266,
      "Ġholid": 4267,
      "ĠLike": 4268,
      "Ġimmediately": 4269,
      "Ġchan": 4270,
      "ĠSunday": 4271,
      "Ġcentury": 4272,
      "uration": 4273,
      "Ġlimit": 4274,
      "ĠLaw": 4275,
      "Ġmiddle": 4276,
      "Ġfigure": 4277,
      "ĠCollege": 4278,
      "itute": 4279,
      "ternal": 4280,
      "Ġviews": 4281,
      "llig": 4282,
      "iated": 4283,
      "ĠPeople": 4284,
      "Ġpicture": 4285,
      "Ġ-o": 4286,
      "iled": 4287,
      "Ġflex": 4288,
      "Ġnur": 4289,
      "nders": 4290,
      "Ġ-w": 4291,
      "Ġmat": 4292,
      "Ġchallenging": 4293,
      "Ġmemory": 4294,
      "Ġdi": 4295,
      "ĠLondon": 4296,
      "Ġlooked": 4297,
      "Ġdyna": 4298,
      "Ġclient": 4299,
      "Ġ-ma": 4300,
      "ped": 4301,
      "esses": 4302,
      "Ġdee": 4303,
      "gg": 4304,
      "ping": 4305,
      "Ġdelivery": 4306,
      "Ġsources": 4307,
      "ST": 4308,
      "Ġexperi": 4309,
      "ĠBur": 4310,
      "ĠDevelop": 4311,
      "EL": 4312,
      "bel": 4313,
      "sphe": 4314,
      "utive": 4315,
      "Ġtrave": 4316,
      "Ġallowed": 4317,
      "Ġconnect": 4318,
      "Ġtitle": 4319,
      "Ġknew": 4320,
      "acture": 4321,
      "issions": 4322,
      "Ġloved": 4323,
      "Ġstatement": 4324,
      "Ġsuffer": 4325,
      "ef": 4326,
      "Ġstatus": 4327,
      "Ġbudget": 4328,
      "Ġnorth": 4329,
      "Ġabsolute": 4330,
      "ĠFur": 4331,
      "Ġcards": 4332,
      "ĠDirec": 4333,
      "Ġpleas": 4334,
      "Ġsexual": 4335,
      "Ġeffectively": 4336,
      "Ġcreative": 4337,
      "Ġcopy": 4338,
      "Ġcit": 4339,
      "Ġenvironmental": 4340,
      "ĠChild": 4341,
      "ĠToday": 4342,
      "ĠEuropea": 4343,
      "undred": 4344,
      "Ġprocesses": 4345,
      "ĠEuropean": 4346,
      "Ġwife": 4347,
      "Ġchec": 4348,
      "rse": 4349,
      "Ġtips": 4350,
      "Ġchose": 4351,
      "tening": 4352,
      "Ġmicro": 4353,
      "etic": 4354,
      "ĠMonday": 4355,
      "Ġselect": 4356,
      "Ġobjec": 4357,
      "ĠChristmas": 4358,
      "Ġbroad": 4359,
      "Ġgirls": 4360,
      "Ġ!\"": 4361,
      "Ġhelping": 4362,
      "ĠServices": 4363,
      "Ġeat": 4364,
      "hea": 4365,
      "turing": 4366,
      "Ġdistance": 4367,
      "kend": 4368,
      "Ġ196": 4369,
      "oon": 4370,
      "mentary": 4371,
      "ĠAnother": 4372,
      "loc": 4373,
      "ville": 4374,
      "useum": 4375,
      "Ġsort": 4376,
      "Ġfollowed": 4377,
      "ĠSim": 4378,
      "ĠBecause": 4379,
      "ĠMake": 4380,
      "oub": 4381,
      "got": 4382,
      "ĠAP": 4383,
      "ath": 4384,
      "ĠCanada": 4385,
      "ĠSaturday": 4386,
      "Ġolder": 4387,
      "Ġgold": 4388,
      "Ġearlier": 4389,
      "col": 4390,
      "Ġadvantage": 4391,
      "Ġwild": 4392,
      "ĠWindows": 4393,
      "ĠST": 4394,
      "Ġmilitary": 4395,
      "Ġdecisions": 4396,
      "non": 4397,
      "ĠDavid": 4398,
      "ĠKey": 4399,
      "Ġproperties": 4400,
      "Ġhighl": 4401,
      "Ġhelpful": 4402,
      "used": 4403,
      "Ġrelevant": 4404,
      "Ġmount": 4405,
      "Ġdemand": 4406,
      "nthus": 4407,
      "Ġfinally": 4408,
      "Ġshall": 4409,
      "Ġ-A": 4410,
      "Ġtask": 4411,
      "ĠDel": 4412,
      "Ġconcerns": 4413,
      "Ġadvanced": 4414,
      "Ġcounter": 4415,
      "eel": 4416,
      "Ġgather": 4417,
      "Ġine": 4418,
      "ĠBritish": 4419,
      "ĠSen": 4420,
      "Ġalternative": 4421,
      "ulting": 4422,
      "unk": 4423,
      "mend": 4424,
      "Ġmot": 4425,
      "Ġ-se": 4426,
      "ĠTex": 4427,
      "Ġcoffee": 4428,
      "slight": 4429,
      "bum": 4430,
      "alled": 4431,
      "Ġclimate": 4432,
      "Ġwood": 4433,
      "Ġsubstant": 4434,
      "Ġresist": 4435,
      "Ġslight": 4436,
      "ĠBro": 4437,
      "Ġpresident": 4438,
      "ĠTop": 4439,
      "Ġcultural": 4440,
      "lence": 4441,
      "Ġscene": 4442,
      "Ġlandsca": 4443,
      "Ġpu": 4444,
      "ĠMac": 4445,
      "ĠOh": 4446,
      "Ġprofessionals": 4447,
      "Ġ-old": 4448,
      "Ġjoin": 4449,
      "Ġextremely": 4450,
      "Ġcontext": 4451,
      "Ġtic": 4452,
      "Ġwear": 4453,
      "ĠSur": 4454,
      "Ġreser": 4455,
      "Ġsurge": 4456,
      "Ġtalking": 4457,
      "Ġdie": 4458,
      "Ġpayment": 4459,
      "Ġultim": 4460,
      "Ġlargest": 4461,
      ".m": 4462,
      "Ġ.m": 4463,
      "ĠFrench": 4464,
      "Ġreality": 4465,
      "Ġgrand": 4466,
      "rand": 4467,
      "Ġfant": 4468,
      "ĠWhite": 4469,
      "Ġborn": 4470,
      "Ġadvance": 4471,
      "Ġsymbol": 4472,
      "ĠFacebook": 4473,
      "Ġstandards": 4474,
      "Ġflo": 4475,
      "sites": 4476,
      "Ġ=\"": 4477,
      "ĠLast": 4478,
      "word": 4479,
      "Ġvir": 4480,
      "Ġappearance": 4481,
      "IL": 4482,
      "Ġdeveloping": 4483,
      "Ġautho": 4484,
      "teria": 4485,
      "Ġdiagno": 4486,
      "ĠDec": 4487,
      "rooms": 4488,
      "life": 4489,
      "Ġcommunities": 4490,
      "Ġregister": 4491,
      "iP": 4492,
      "ĠCare": 4493,
      "Ġannual": 4494,
      "ĠMid": 4495,
      "Ġpages": 4496,
      "ĠAg": 4497,
      "Ġseven": 4498,
      "Ġorganizations": 4499,
      "Ġrequest": 4500,
      "ashion": 4501,
      "hatever": 4502,
      "Ġcentral": 4503,
      "Ġassistance": 4504,
      "Ġguarante": 4505,
      "Ġexceptional": 4506,
      "Ġcaused": 4507,
      "olf": 4508,
      ".'": 4509,
      "mics": 4510,
      "Ġanimals": 4511,
      "inse": 4512,
      "Ġperhaps": 4513,
      "ĠLife": 4514,
      "Ġaccurate": 4515,
      "ĠEducation": 4516,
      "Ġtesting": 4517,
      "AP": 4518,
      "ĠPC": 4519,
      "Ġmere": 4520,
      "Ġbillion": 4521,
      "Ġplatforms": 4522,
      "pto": 4523,
      "inted": 4524,
      "Ġgraph": 4525,
      "Ġexpo": 4526,
      "ĠWed": 4527,
      "hrea": 4528,
      "Ġmale": 4529,
      "Ġthrea": 4530,
      "Ġforms": 4531,
      "mination": 4532,
      "ĠGroup": 4533,
      "ĠProgram": 4534,
      "Ġsmooth": 4535,
      "Ġsca": 4536,
      "ott": 4537,
      "Ġaren": 4538,
      "unctions": 4539,
      "Ġsuggest": 4540,
      "Ġuns": 4541,
      "Ġpreviously": 4542,
      "ĠFol": 4543,
      "ĠÂ£": 4544,
      "Ġsustai": 4545,
      "Ġdeter": 4546,
      "ja": 4547,
      "graphy": 4548,
      "Ġcommitment": 4549,
      "Ġchat": 4550,
      "Ġhus": 4551,
      "Ġbeg": 4552,
      "Ġ.'": 4553,
      "Ġ33": 4554,
      "Ġactual": 4555,
      "Ġenthus": 4556,
      "Ġgradu": 4557,
      "Ġencounter": 4558,
      "Ġfab": 4559,
      "Ġtraffic": 4560,
      "ĠFlo": 4561,
      "Ġoperations": 4562,
      "Ġwedding": 4563,
      "ĠVis": 4564,
      "Ġang": 4565,
      "sors": 4566,
      "Ġprincip": 4567,
      "Ġchanged": 4568,
      "Ġengaging": 4569,
      "Ġquant": 4570,
      "Ġvaluable": 4571,
      "ĠBel": 4572,
      "Ġnegative": 4573,
      "Ġdrug": 4574,
      "Ġreports": 4575,
      "Ġhundred": 4576,
      "ĠAss": 4577,
      "inent": 4578,
      "Ġwonderful": 4579,
      "ĠTwo": 4580,
      "ĠCusto": 4581,
      "ĠYear": 4582,
      "Ġrepresent": 4583,
      "Ġbasis": 4584,
      "Ġfoster": 4585,
      "Ġattack": 4586,
      "ĠEast": 4587,
      "Ġchee": 4588,
      "Ġhur": 4589,
      "ĠAdd": 4590,
      "ges": 4591,
      "itter": 4592,
      "ĠIr": 4593,
      "Ġconsult": 4594,
      "slo": 4595,
      "onto": 4596,
      "Ġtopic": 4597,
      "Ġvill": 4598,
      "Ġgla": 4599,
      "Ġcore": 4600,
      "Ġpush": 4601,
      "quality": 4602,
      "Ġtruth": 4603,
      "Ġvary": 4604,
      "Ġfans": 4605,
      "tu": 4606,
      "ĠOb": 4607,
      "nia": 4608,
      "Ġfiles": 4609,
      "Ġ75": 4610,
      "Ġpool": 4611,
      "Ġpsycho": 4612,
      "ila": 4613,
      "ĠBet": 4614,
      "nty": 4615,
      "Ġcook": 4616,
      "Ġsecret": 4617,
      "meter": 4618,
      "Ġnamed": 4619,
      "Ġpictures": 4620,
      "Ġdoll": 4621,
      "ĠDist": 4622,
      "Ġattemp": 4623,
      "Ġshape": 4624,
      "rew": 4625,
      "ĠManagement": 4626,
      "gal": 4627,
      "Ġsolid": 4628,
      "Ġaccept": 4629,
      "Ġremove": 4630,
      "Ġnovel": 4631,
      "Ġserved": 4632,
      "hus": 4633,
      "ĠMicro": 4634,
      "ĠAustralia": 4635,
      "ota": 4636,
      "Ġpen": 4637,
      "ĠWater": 4638,
      "ene": 4639,
      "iff": 4640,
      "Ġsell": 4641,
      "Ġsubstantial": 4642,
      "Ġguests": 4643,
      "Ġperce": 4644,
      "Ġexchange": 4645,
      "ĠPort": 4646,
      "Ġsmaller": 4647,
      "Ġleaving": 4648,
      "iga": 4649,
      "Ġdeco": 4650,
      "Ġlots": 4651,
      "Ġmiles": 4652,
      "stro": 4653,
      "ĠiP": 4654,
      "Ġdish": 4655,
      "ĠSuper": 4656,
      "venture": 4657,
      "ĠData": 4658,
      "ĠMic": 4659,
      "ĠExp": 4660,
      "ĠAma": 4661,
      "Ġdescribed": 4662,
      "Ġahead": 4663,
      "Ġconcent": 4664,
      "mosphe": 4665,
      "Ġliter": 4666,
      "Ġanc": 4667,
      "Ġinch": 4668,
      "NA": 4669,
      "Ġbecomes": 4670,
      "Ġtasks": 4671,
      "works": 4672,
      "Ġcouldn": 4673,
      "ady": 4674,
      "Ġsco": 4675,
      "fast": 4676,
      "Ġhighest": 4677,
      "Ġjobs": 4678,
      "Ġphotos": 4679,
      "ffec": 4680,
      "Ġimpo": 4681,
      "Ġheavy": 4682,
      "Ġacademic": 4683,
      "tore": 4684,
      "Ġmist": 4685,
      "Ġwinter": 4686,
      "ĠWal": 4687,
      "ĠChristian": 4688,
      "Ġterri": 4689,
      "riendly": 4690,
      "Ġcommunic": 4691,
      "isted": 4692,
      "Ġvideos": 4693,
      "Ġseparate": 4694,
      "Ġ-M": 4695,
      "Ġsaving": 4696,
      "Ġpieces": 4697,
      "Ġteachers": 4698,
      "Ġpresented": 4699,
      "ĠEarth": 4700,
      "Ġsharing": 4701,
      "Ġonto": 4702,
      "orders": 4703,
      "ours": 4704,
      "ĠJew": 4705,
      "Ġinsights": 4706,
      "ĠSam": 4707,
      "ads": 4708,
      "ĠBefore": 4709,
      "Ġharm": 4710,
      "Ġrare": 4711,
      "IG": 4712,
      "Ġtee": 4713,
      "Ġedge": 4714,
      "Ġbottom": 4715,
      "Ġhandle": 4716,
      "Ġcomments": 4717,
      "inese": 4718,
      "ĠSet": 4719,
      "ĠIS": 4720,
      "Ġdrop": 4721,
      "Ġgift": 4722,
      "ipe": 4723,
      "ĠSum": 4724,
      "Ġcomponents": 4725,
      "Ġfaith": 4726,
      "Ġja": 4727,
      "Ġthoughts": 4728,
      "Ġeth": 4729,
      "Ġspread": 4730,
      "Ġ-free": 4731,
      "Ġhealthcare": 4732,
      "Ġproduced": 4733,
      "Ġalle": 4734,
      "Ġhomes": 4735,
      "ĠThurs": 4736,
      "Ġquo": 4737,
      "Ġillust": 4738,
      "Ġdevelo": 4739,
      "ĠItal": 4740,
      "Ġwhose": 4741,
      "Ġspring": 4742,
      "Ġguy": 4743,
      "ista": 4744,
      "Ġalbum": 4745,
      "Ġclasses": 4746,
      "Ġwelcome": 4747,
      "Ġmission": 4748,
      "ĠDan": 4749,
      "Ġ><": 4750,
      "Ġfactor": 4751,
      "ĠFam": 4752,
      "Ġweekend": 4753,
      "ilk": 4754,
      "ĠBoth": 4755,
      "ssor": 4756,
      "ĠSocial": 4757,
      "inder": 4758,
      "Ġrooms": 4759,
      "Ġadding": 4760,
      "ãģ": 4761,
      "ĠWhether": 4762,
      "PS": 4763,
      "Ġ300": 4764,
      "ooks": 4765,
      "nology": 4766,
      "Ġcapacity": 4767,
      "ĠWashing": 4768,
      "Ġpassion": 4769,
      "ĠJack": 4770,
      "ĠPhil": 4771,
      "ĠTues": 4772,
      "ĠPhoto": 4773,
      "uries": 4774,
      "Ġlose": 4775,
      "Ġ-t": 4776,
      "Ġchemical": 4777,
      "Ġshop": 4778,
      "Ġcompetition": 4779,
      "Ġearth": 4780,
      "Ġcomment": 4781,
      "ĠWher": 4782,
      "ller": 4783,
      "ĠWhere": 4784,
      "Ġpractical": 4785,
      "Ġcamera": 4786,
      "Ġworkers": 4787,
      "rael": 4788,
      "Ġconta": 4789,
      "ĠWork": 4790,
      "Ġitem": 4791,
      "ript": 4792,
      "ĠPat": 4793,
      "Ġfunds": 4794,
      "ĠInternet": 4795,
      "ager": 4796,
      "EM": 4797,
      "Ġsugar": 4798,
      "ĠAnt": 4799,
      "Ġthanks": 4800,
      "Ġ99": 4801,
      "Ġingred": 4802,
      "Ġslo": 4803,
      "ĠDra": 4804,
      "ito": 4805,
      "riage": 4806,
      "ĠGlo": 4807,
      "Ġbackground": 4808,
      "Ġcy": 4809,
      "Ġsla": 4810,
      "ĠPost": 4811,
      "ĠTea": 4812,
      "Ġthus": 4813,
      "Ġhappened": 4814,
      "rep": 4815,
      "essor": 4816,
      "Ġserving": 4817,
      "isco": 4818,
      "fficient": 4819,
      "Ġteacher": 4820,
      "ĠPal": 4821,
      "Ġtex": 4822,
      "ĠStreet": 4823,
      "Ġglass": 4824,
      "ĠCB": 4825,
      "ĠTru": 4826,
      "Ġfight": 4827,
      "OM": 4828,
      "ĠTake": 4829,
      "Ġgarden": 4830,
      "Ġkeeping": 4831,
      "Ġgeo": 4832,
      "ifying": 4833,
      "Ġmeasures": 4834,
      "Ġhusband": 4835,
      "Ġletter": 4836,
      "Ġappears": 4837,
      "Ġadult": 4838,
      "Ġfacilities": 4839,
      "Ġrise": 4840,
      "Ġinitia": 4841,
      "rin": 4842,
      "Ġeconomy": 4843,
      "ipping": 4844,
      "Ġloan": 4845,
      "AD": 4846,
      "hop": 4847,
      "Ġjournal": 4848,
      "Ġdetailed": 4849,
      "ĠGreen": 4850,
      "Ġwrote": 4851,
      "ssess": 4852,
      "Ġ-re": 4853,
      "ĠIT": 4854,
      "ĠPaul": 4855,
      "iors": 4856,
      "lands": 4857,
      "Ġeducational": 4858,
      "lent": 4859,
      "pter": 4860,
      "Ġmoved": 4861,
      "Ġatmosphe": 4862,
      "Ġbeauty": 4863,
      "Ġcompleted": 4864,
      "ups": 4865,
      "Ġserves": 4866,
      "Ġannounced": 4867,
      "amin": 4868,
      "ĠWednes": 4869,
      "intenance": 4870,
      "Ġchurch": 4871,
      "bu": 4872,
      "ĠCra": 4873,
      "Ġmanufacture": 4874,
      "Ġcoach": 4875,
      "inner": 4876,
      "Ġcontinues": 4877,
      "Ġcivil": 4878,
      "ĠTexas": 4879,
      "Ġcampaign": 4880,
      "ĠThursday": 4881,
      "Ġ02": 4882,
      "Ġshot": 4883,
      "Ġbac": 4884,
      "Ġhaven": 4885,
      "unately": 4886,
      "ĠClick": 4887,
      "Ġcatch": 4888,
      "pho": 4889,
      "Ġopening": 4890,
      "Ġtechnical": 4891,
      "ĠAut": 4892,
      "usion": 4893,
      "rest": 4894,
      "Ġgaming": 4895,
      "Ġpresents": 4896,
      "Ġaward": 4897,
      "Ġanticip": 4898,
      "Ġbonus": 4899,
      "ĠPower": 4900,
      "âĢ¦": 4901,
      "ĠIde": 4902,
      "Ġincred": 4903,
      "ĠAC": 4904,
      "Ġprepared": 4905,
      "Ġemotional": 4906,
      "spa": 4907,
      "vor": 4908,
      "Ġlearned": 4909,
      "ĠEmp": 4910,
      "ĠHave": 4911,
      "Ġestim": 4912,
      "Ġautomatic": 4913,
      "ĠMal": 4914,
      "ĠStan": 4915,
      "Ġseeing": 4916,
      "ĠWashington": 4917,
      "Ġguys": 4918,
      "Ġtrouble": 4919,
      "ĠIndian": 4920,
      "Ġdanger": 4921,
      "Ġeight": 4922,
      "Ġrout": 4923,
      "Ġhappens": 4924,
      "ĠTuesday": 4925,
      "Ġhelped": 4926,
      "Ġplus": 4927,
      "ived": 4928,
      "Ġvalid": 4929,
      "efore": 4930,
      "Ġsuggests": 4931,
      "ntic": 4932,
      "ĠSal": 4933,
      "Ġconnected": 4934,
      "ĠGeneral": 4935,
      "nese": 4936,
      "Ġcolors": 4937,
      "Ġcraf": 4938,
      "Ġvision": 4939,
      "Ġ34": 4940,
      "Ġ-be": 4941,
      "Ġmine": 4942,
      "phy": 4943,
      "ellow": 4944,
      "Ġshopping": 4945,
      "Ġ-F": 4946,
      "Ġbecoming": 4947,
      "ricul": 4948,
      "nee": 4949,
      "Ġdump": 4950,
      "==": 4951,
      "ĠJames": 4952,
      "Ġ\"The": 4953,
      "acted": 4954,
      "Ġdiscovered": 4955,
      "gar": 4956,
      "asy": 4957,
      "ĠCourt": 4958,
      "abilities": 4959,
      "Ġveget": 4960,
      "Ġsevere": 4961,
      "Ġdirection": 4962,
      "els": 4963,
      "Ġdesire": 4964,
      "ĠHy": 4965,
      "Ġice": 4966,
      "Ġfederal": 4967,
      "ĠWillia": 4968,
      "Ġlaws": 4969,
      "Ġcleaning": 4970,
      "Ġfriendly": 4971,
      "ĠIsrael": 4972,
      "ĠChinese": 4973,
      "IV": 4974,
      "Ġoffe": 4975,
      "Ġmetal": 4976,
      "Ġfunctions": 4977,
      "Ġod": 4978,
      "Ġ'.": 4979,
      "Ġkid": 4980,
      "ĠNews": 4981,
      "bed": 4982,
      "ressed": 4983,
      "Ġanx": 4984,
      "ĠApple": 4985,
      "Ġefficiency": 4986,
      "ĠRepublic": 4987,
      "Ġsan": 4988,
      "Ġexcess": 4989,
      "ĠClass": 4990,
      "Ġ05": 4991,
      "base": 4992,
      "ĠCompany": 4993,
      "Ġowner": 4994,
      "Ġesc": 4995,
      "Ġ-the": 4996,
      "Ġdirector": 4997,
      ".g": 4998,
      "Ġ.g": 4999,
      "Ġpark": 5000,
      "ĠPay": 5001,
      "Ġarchite": 5002,
      "Ġcontinued": 5003,
      "Ġcovered": 5004,
      "Ġmill": 5005,
      "Ġaccessible": 5006,
      "ĠCheck": 5007,
      "Ġmaintenance": 5008,
      "Ġbelief": 5009,
      "Ġobvious": 5010,
      "Ġattach": 5011,
      "Ġsurrounding": 5012,
      "Ġwouldn": 5013,
      "house": 5014,
      "ĠGree": 5015,
      "ĠWednesday": 5016,
      "ĠBig": 5017,
      "Ġelim": 5018,
      "right": 5019,
      "Ġvib": 5020,
      "refore": 5021,
      "ĠPublic": 5022,
      "Ġcauses": 5023,
      "ĠChe": 5024,
      "Ġleaves": 5025,
      "Ġcitize": 5026,
      "bour": 5027,
      "Ġplaced": 5028,
      "Ġdepending": 5029,
      "lon": 5030,
      "Ġspeak": 5031,
      "IP": 5032,
      "Ġreci": 5033,
      "Ġcompetitive": 5034,
      "Ġmotor": 5035,
      "Ġprospe": 5036,
      "ĠBack": 5037,
      "ĠBlue": 5038,
      "Ġcomme": 5039,
      "Ġmotiv": 5040,
      "ĠBook": 5041,
      "Ġtaste": 5042,
      "Ġdoctor": 5043,
      "Ġadults": 5044,
      "ĠFurther": 5045,
      "cious": 5046,
      "nda": 5047,
      "ĠDri": 5048,
      "Ġpassed": 5049,
      "Ġwebsites": 5050,
      "Ġcontract": 5051,
      "Ġrapid": 5052,
      "erefore": 5053,
      "herefore": 5054,
      "ighted": 5055,
      "ilt": 5056,
      "Ġensures": 5057,
      "ĠRich": 5058,
      "Ġnames": 5059,
      "Ġtherefore": 5060,
      "Ġestate": 5061,
      "Ġsession": 5062,
      "Ġseque": 5063,
      "Ġboy": 5064,
      "ĠâĢ¦ĊĊ": 5065,
      "eta": 5066,
      "inger": 5067,
      "bama": 5068,
      "iers": 5069,
      "OL": 5070,
      "vis": 5071,
      "Ġgone": 5072,
      "Ġdaughter": 5073,
      "Ġpolicies": 5074,
      "Ġconvenient": 5075,
      "ĠPlan": 5076,
      "Ġmajority": 5077,
      "pol": 5078,
      "Ġoperating": 5079,
      "Ġevening": 5080,
      "Ġcombination": 5081,
      "Ġ....": 5082,
      "Ġcontrac": 5083,
      "nar": 5084,
      "rida": 5085,
      "hael": 5086,
      "Ġconser": 5087,
      "Ġinterpr": 5088,
      "Ġrisks": 5089,
      "Ġcontains": 5090,
      "hase": 5091,
      "Ġfemale": 5092,
      "Ġexpertise": 5093,
      "Ġacknow": 5094,
      "Ġclub": 5095,
      "Ġkept": 5096,
      "Ġexperts": 5097,
      "rick": 5098,
      "Ġmaintaining": 5099,
      "Ġparties": 5100,
      "Ġcircum": 5101,
      "ĠSup": 5102,
      "Ġeating": 5103,
      "tainment": 5104,
      "hand": 5105,
      "Ġfeaturing": 5106,
      "Ġpossess": 5107,
      "race": 5108,
      "ĠTer": 5109,
      "VID": 5110,
      "ĠZe": 5111,
      "Ġbutton": 5112,
      "Ġquarter": 5113,
      "usted": 5114,
      "Ġbrief": 5115,
      "lowing": 5116,
      "Ġnotice": 5117,
      "Ġschedule": 5118,
      "Ġformat": 5119,
      "Ġintellig": 5120,
      "ĠMoreover": 5121,
      "Ġ55": 5122,
      "ĠSing": 5123,
      "Ġwine": 5124,
      "Ġinput": 5125,
      "Ġwit": 5126,
      "Ġrestric": 5127,
      "Ġpreg": 5128,
      "ĠInformation": 5129,
      "Ġfas": 5130,
      "ructure": 5131,
      "ĠAnge": 5132,
      "Ġreliable": 5133,
      "Ġseek": 5134,
      "Ġuna": 5135,
      "Ġhistorical": 5136,
      "ifications": 5137,
      "Ġexhib": 5138,
      "Ġthank": 5139,
      "Ġepiso": 5140,
      "uty": 5141,
      "nent": 5142,
      "lications": 5143,
      "Ġfashion": 5144,
      "Ġ39": 5145,
      "gment": 5146,
      "Ġconstruc": 5147,
      "Ġsquare": 5148,
      "Ġpromote": 5149,
      "Ġencoura": 5150,
      "Ġcalls": 5151,
      "Ġdecrea": 5152,
      "Ġcontribute": 5153,
      "Ġina": 5154,
      "ĠChurch": 5155,
      "Ġleadership": 5156,
      "unning": 5157,
      "Ġdiscus": 5158,
      "Ġappreciate": 5159,
      "Ġsweet": 5160,
      "Ġtherapy": 5161,
      "Ġbeach": 5162,
      "ĠDia": 5163,
      "Ġoccasion": 5164,
      "ini": 5165,
      "Ġserver": 5166,
      "ĠThrough": 5167,
      "ĠFound": 5168,
      "Ġreduced": 5169,
      "ĠDemo": 5170,
      "Ġspect": 5171,
      "Ġconseque": 5172,
      "ĠUpon": 5173,
      "Ġpaint": 5174,
      "Ġleader": 5175,
      "Ġinse": 5176,
      "Ġfocused": 5177,
      "Ġlaye": 5178,
      "Ġcoverage": 5179,
      "Ġindependent": 5180,
      "Ġpreser": 5181,
      "Ġplu": 5182,
      "iance": 5183,
      "Ġ42": 5184,
      "ĠVal": 5185,
      "Ġprint": 5186,
      "Ġwilling": 5187,
      "nowned": 5188,
      "Ġfoods": 5189,
      "Ġload": 5190,
      "ĠDoe": 5191,
      "Ġ48": 5192,
      "ĠLove": 5193,
      "Ġbill": 5194,
      "Ġrock": 5195,
      "ĠPR": 5196,
      "Ġlib": 5197,
      "Ġaffect": 5198,
      "Ġconsidering": 5199,
      "Ġresource": 5200,
      "ube": 5201,
      "oom": 5202,
      "Ġsector": 5203,
      "aged": 5204,
      "og": 5205,
      "Ġdiscussion": 5206,
      "Ġnor": 5207,
      "Ġfeedback": 5208,
      "Ġfuel": 5209,
      "Ġ-P": 5210,
      "rition": 5211,
      "Ġinnovative": 5212,
      "ĠMary": 5213,
      "Ġfan": 5214,
      "Ġpropo": 5215,
      "Ġexclusive": 5216,
      "Ġbi": 5217,
      "Ġstrugg": 5218,
      "Ġindica": 5219,
      "ros": 5220,
      "Ġluck": 5221,
      "eable": 5222,
      "Ġleads": 5223,
      "Ġ-friendly": 5224,
      "idance": 5225,
      "box": 5226,
      "Ġwhatever": 5227,
      "sence": 5228,
      "Ġresidents": 5229,
      "Ġ37": 5230,
      "Ġupdate": 5231,
      "Ġrol": 5232,
      "Ġminor": 5233,
      "Ġanimal": 5234,
      "cast": 5235,
      "Ġconflic": 5236,
      "Ġprocessing": 5237,
      "Ġclassic": 5238,
      "ĠInt": 5239,
      "Ġknows": 5240,
      "ĠInde": 5241,
      "Ġscientific": 5242,
      "ousing": 5243,
      "ĠCong": 5244,
      "Ġparticipants": 5245,
      "edom": 5246,
      "Ġwaiting": 5247,
      "Ġrain": 5248,
      "rical": 5249,
      "Ġinternal": 5250,
      "ĠCouncil": 5251,
      "Ġ38": 5252,
      "--------": 5253,
      "Ġshowed": 5254,
      "amb": 5255,
      "arian": 5256,
      "ĠOpen": 5257,
      "Ġado": 5258,
      "Ġbow": 5259,
      "ons": 5260,
      "Ġexpensive": 5261,
      "eding": 5262,
      "Ġexamples": 5263,
      "Ġinstru": 5264,
      "Ġ-quality": 5265,
      "Ġchoices": 5266,
      "Ġ08": 5267,
      "Ġwind": 5268,
      "Ġattend": 5269,
      "ĠLord": 5270,
      "Ġchanging": 5271,
      "sme": 5272,
      "Ġwalking": 5273,
      "Ġsigns": 5274,
      "Ġcrow": 5275,
      "Ġminimum": 5276,
      "illa": 5277,
      "Ġmort": 5278,
      "Ġopinion": 5279,
      "Ġrecords": 5280,
      "Ġ-of": 5281,
      "Ġoutdoor": 5282,
      "Ġhonest": 5283,
      "bing": 5284,
      "Ġradio": 5285,
      "Ġ03": 5286,
      "Ġinvolve": 5287,
      "sort": 5288,
      "Ġbuying": 5289,
      "odies": 5290,
      "Ġmouth": 5291,
      "Ġprofile": 5292,
      "Ġtheory": 5293,
      "Ġdogs": 5294,
      "TS": 5295,
      "cohol": 5296,
      "lass": 5297,
      "ky": 5298,
      "ĠDoes": 5299,
      "Ġig": 5300,
      "BC": 5301,
      "gest": 5302,
      "Ġrating": 5303,
      "ĠCD": 5304,
      "ĠMart": 5305,
      "Ġswitch": 5306,
      "Ġsettings": 5307,
      "Ġroof": 5308,
      "Ġtests": 5309,
      "itions": 5310,
      "ĠAuto": 5311,
      "Ġbound": 5312,
      "Ġthousands": 5313,
      "Ġapplied": 5314,
      "ibilities": 5315,
      "Ġspending": 5316,
      "Ġobject": 5317,
      "ĠAssociation": 5318,
      "Ġ04": 5319,
      "Ġholiday": 5320,
      "Ġspecifically": 5321,
      "ĠÂŃ": 5322,
      "iration": 5323,
      "Ġexpressed": 5324,
      "Ġhospital": 5325,
      "Ġvs": 5326,
      "Ġneighbor": 5327,
      "ĠUsing": 5328,
      "Ġath": 5329,
      "Ġaccompa": 5330,
      "eno": 5331,
      "tained": 5332,
      "Ġrule": 5333,
      "ĠInstead": 5334,
      "Ġdriver": 5335,
      "Ġunders": 5336,
      "Ġentry": 5337,
      "Ġslightly": 5338,
      "Ġconfidence": 5339,
      "Ġride": 5340,
      "Ġprepare": 5341,
      "Ġclearly": 5342,
      "ĠReal": 5343,
      "Ġconversation": 5344,
      "ĠÂ°": 5345,
      "mble": 5346,
      "cup": 5347,
      "ple": 5348,
      "sounds": 5349,
      "Ġnotes": 5350,
      "down": 5351,
      "Ġreducing": 5352,
      "slot": 5353,
      "ĠTherefore": 5354,
      "Ġresident": 5355,
      "Ġgeneration": 5356,
      "Ġscale": 5357,
      "Ġsounds": 5358,
      "Ġflat": 5359,
      "Ġ41": 5360,
      "rab": 5361,
      "Ġcarbon": 5362,
      "ĠColo": 5363,
      "Ġguess": 5364,
      "Ġcommitted": 5365,
      "Ġcompar": 5366,
      "Ġintroduced": 5367,
      "ĠCap": 5368,
      "Ġmir": 5369,
      "lined": 5370,
      "Ġsubseque": 5371,
      "lam": 5372,
      "ĠAfrican": 5373,
      "Ġyouth": 5374,
      "tics": 5375,
      "Ġconcern": 5376,
      "Ġtea": 5377,
      "Ġreaders": 5378,
      "Ġsole": 5379,
      "ctors": 5380,
      "Ġtrees": 5381,
      "Ġmistake": 5382,
      "Ġsets": 5383,
      "Ġremark": 5384,
      "Ġfarm": 5385,
      "Ġselected": 5386,
      "Ġdeca": 5387,
      "ĠRiver": 5388,
      "Ġimproved": 5389,
      "Ġfabric": 5390,
      "Ġdecide": 5391,
      "Ġatmospher": 5392,
      "ðŁ": 5393,
      "Ġatmosphere": 5394,
      "Ġslot": 5395,
      "Ġdance": 5396,
      "Ġ-B": 5397,
      "nche": 5398,
      "Ġrepl": 5399,
      "Ġprimarily": 5400,
      "Ġfilled": 5401,
      "ĠNOT": 5402,
      "Ġpatterns": 5403,
      "Ġfamiliar": 5404,
      "Ġpee": 5405,
      "ĠSoc": 5406,
      "Ġwatching": 5407,
      "________": 5408,
      "Ġstreet": 5409,
      "ĠRob": 5410,
      "Ġpoly": 5411,
      "umber": 5412,
      "ĠDevelopment": 5413,
      "Ġmaximum": 5414,
      "Ġplays": 5415,
      "ĠLou": 5416,
      "Ġmanufact": 5417,
      "rugs": 5418,
      "Ġclaims": 5419,
      "sat": 5420,
      "water": 5421,
      "Ġcris": 5422,
      "ĠDown": 5423,
      "Ġprotein": 5424,
      "ĠBea": 5425,
      "Ġstation": 5426,
      "ables": 5427,
      "while": 5428,
      "Ġattempt": 5429,
      "snow": 5430,
      "Ġcreation": 5431,
      "uk": 5432,
      "Ġhop": 5433,
      "Ġarray": 5434,
      "Ġdoub": 5435,
      "Ġcars": 5436,
      "Ġinformed": 5437,
      "Ġrenowned": 5438,
      "ĠKeep": 5439,
      "ĠGive": 5440,
      "DA": 5441,
      "outs": 5442,
      "pts": 5443,
      "ex": 5444,
      "Ġ}": 5445,
      "Ġ-day": 5446,
      "Ġwealth": 5447,
      "Ġvolume": 5448,
      "Ġlisted": 5449,
      "Ġoutput": 5450,
      "Ġdress": 5451,
      "Ġsoil": 5452,
      "Ġreput": 5453,
      "Ġ195": 5454,
      "Ġlinks": 5455,
      "Ġspan": 5456,
      "ĠMex": 5457,
      "Ġsumm": 5458,
      "Ġinterests": 5459,
      "Ġtailo": 5460,
      "ĠAnal": 5461,
      "Ġraised": 5462,
      "Ġsnow": 5463,
      "ĠBas": 5464,
      "ĠStudents": 5465,
      "Ġvital": 5466,
      "mond": 5467,
      "tened": 5468,
      "Ġtopics": 5469,
      "Ġ/o": 5470,
      "sport": 5471,
      "Ġautom": 5472,
      "mies": 5473,
      "ĠAmazon": 5474,
      "Ġdelic": 5475,
      "Ġvit": 5476,
      "Ġplenty": 5477,
      "Ġdepr": 5478,
      "Ġjump": 5479,
      "icul": 5480,
      "Ġaid": 5481,
      "Ġ07": 5482,
      "Ġunits": 5483,
      "uses": 5484,
      "Ġattribu": 5485,
      "hrow": 5486,
      "Ġlayer": 5487,
      "Ġthrow": 5488,
      "Ġmeant": 5489,
      "ĠFlorida": 5490,
      "Ġproperly": 5491,
      "Ġliqu": 5492,
      "tail": 5493,
      "Ġdow": 5494,
      "ngers": 5495,
      "Ġapps": 5496,
      "Ġenjoyed": 5497,
      "roll": 5498,
      "ĠDesign": 5499,
      "Ġinjury": 5500,
      "mpion": 5501,
      "Ġotherwise": 5502,
      "Ġcop": 5503,
      "LE": 5504,
      "Ġsente": 5505,
      "Ġperformed": 5506,
      "Ġshowing": 5507,
      "Ġfinished": 5508,
      "Ġstands": 5509,
      "ari": 5510,
      "Ġmm": 5511,
      "Ġshoe": 5512,
      "Ġcourses": 5513,
      "ĠRel": 5514,
      "gers": 5515,
      "ĠBay": 5516,
      "osing": 5517,
      "Ġcompla": 5518,
      "ĠMichael": 5519,
      "stors": 5520,
      "Ġreference": 5521,
      "vations": 5522,
      "Ġscra": 5523,
      "ĠEngland": 5524,
      "omp": 5525,
      "ĠMark": 5526,
      "Ġexplain": 5527,
      "phone": 5528,
      "Ġgent": 5529,
      "Ġguidance": 5530,
      "Ġtrig": 5531,
      "Ġtrading": 5532,
      "nating": 5533,
      "heme": 5534,
      "she": 5535,
      "ĠEco": 5536,
      "reams": 5537,
      "Ġintended": 5538,
      "Ġplastic": 5539,
      "ĠBoard": 5540,
      "alley": 5541,
      "Ġaspect": 5542,
      "Ġbattery": 5543,
      "ilding": 5544,
      "ĠCOVID": 5545,
      "Ġ-le": 5546,
      "ĠExce": 5547,
      "Ġworry": 5548,
      "Ġtheme": 5549,
      "ang": 5550,
      "reak": 5551,
      "Ġthor": 5552,
      "apt": 5553,
      "ĠOF": 5554,
      "solution": 5555,
      "field": 5556,
      "Ġ09": 5557,
      "ĠConst": 5558,
      "ĠTrump": 5559,
      "Ġdetail": 5560,
      "Ġreligious": 5561,
      "ĠKnow": 5562,
      "Ġico": 5563,
      "Ġcast": 5564,
      "Ġrestaurant": 5565,
      "cture": 5566,
      "Ġpursu": 5567,
      "Ġresponsibility": 5568,
      "Ġhum": 5569,
      "Ġrepair": 5570,
      "ĠTest": 5571,
      "Ġlifest": 5572,
      "Ġmut": 5573,
      "gine": 5574,
      "Ġjoy": 5575,
      "Ġresearchers": 5576,
      "ira": 5577,
      "US": 5578,
      "Ġvehicles": 5579,
      "Ġevol": 5580,
      "sche": 5581,
      "ĠSystem": 5582,
      "Ġvisitors": 5583,
      "Ġ194": 5584,
      "ifts": 5585,
      "Ġconfig": 5586,
      "Ġfle": 5587,
      "Ġmarkets": 5588,
      "Ġskill": 5589,
      "ĠFina": 5590,
      "Ġdecades": 5591,
      "Ġposts": 5592,
      "Ġfees": 5593,
      "Ġlux": 5594,
      "gaz": 5595,
      "ĠInstitute": 5596,
      "Ġsport": 5597,
      "Ġbrings": 5598,
      "cular": 5599,
      "Ġpossibly": 5600,
      "Ġmanaged": 5601,
      "Ġaudio": 5602,
      "Ġequipped": 5603,
      "ston": 5604,
      "known": 5605,
      "Ġextended": 5606,
      "Ġdream": 5607,
      "iability": 5608,
      "Ġrespective": 5609,
      "ĠShare": 5610,
      "Ġ44": 5611,
      "sna": 5612,
      "lig": 5613,
      "west": 5614,
      "ĠLake": 5615,
      "Ġaffordable": 5616,
      "Ġstim": 5617,
      "Ġ150": 5618,
      "UR": 5619,
      "Ġtechnologies": 5620,
      "ĠCr": 5621,
      "Ġinitially": 5622,
      "ourse": 5623,
      "Ġidentified": 5624,
      "Ġdisa": 5625,
      "Ġerror": 5626,
      "ĠSpecial": 5627,
      "ĠVir": 5628,
      "Ġ-pr": 5629,
      "inate": 5630,
      "Ġselling": 5631,
      "Ġbiggest": 5632,
      "ij": 5633,
      "ĠBen": 5634,
      "alls": 5635,
      "Ġstated": 5636,
      "Ġcoun": 5637,
      "Ġforeign": 5638,
      "Ġeventually": 5639,
      "Ġguarantee": 5640,
      "ĠReco": 5641,
      "Ġpattern": 5642,
      "Ġpump": 5643,
      "Ġdining": 5644,
      "Ġbag": 5645,
      "Ġingredients": 5646,
      "Ġdocuments": 5647,
      "ĠCommunity": 5648,
      "Ġprovider": 5649,
      "ĠBal": 5650,
      "uce": 5651,
      "Ġclosed": 5652,
      "Ġmanager": 5653,
      "Ġvictim": 5654,
      "iloso": 5655,
      "Ġunless": 5656,
      "Ġ65": 5657,
      "Ġcab": 5658,
      "niture": 5659,
      "nsity": 5660,
      ".C": 5661,
      "Ġ.C": 5662,
      "Ġfootball": 5663,
      "gene": 5664,
      "elf": 5665,
      "Ġabsolutely": 5666,
      "ĠOnly": 5667,
      "Ġaccounts": 5668,
      "astic": 5669,
      "Ġarrange": 5670,
      "Ġscree": 5671,
      "Ġsupporting": 5672,
      "Ġfunda": 5673,
      "inds": 5674,
      "Ġhumans": 5675,
      "Ġlocations": 5676,
      "dor": 5677,
      "Ġrat": 5678,
      "Ġaccomp": 5679,
      "Ġmedium": 5680,
      "Ġ-T": 5681,
      "Ġacid": 5682,
      "Ġmention": 5683,
      "Ġupgra": 5684,
      "Ġ06": 5685,
      "Ġswim": 5686,
      "gues": 5687,
      "Ġrid": 5688,
      "iel": 5689,
      "Ġ-D": 5690,
      "ĠRet": 5691,
      "ĠAS": 5692,
      "Ġcities": 5693,
      "Ġcult": 5694,
      "Ġfamous": 5695,
      "poses": 5696,
      "kin": 5697,
      "Ġdesigns": 5698,
      "Ġble": 5699,
      "ĠGeorge": 5700,
      "Ġpackage": 5701,
      "Ġdied": 5702,
      "Ġprompt": 5703,
      "Ġstarts": 5704,
      "Ġcontain": 5705,
      "ĠÂ·": 5706,
      "Ġseemed": 5707,
      "acting": 5708,
      "Ġvirtual": 5709,
      "spon": 5710,
      "Ġenthusia": 5711,
      "ĠAm": 5712,
      "Ġtot": 5713,
      "ĠCurrent": 5714,
      "Ġ/or": 5715,
      "ĠEngine": 5716,
      "ĠAlex": 5717,
      "Ġexciting": 5718,
      "ĠAmericans": 5719,
      "Ġdeposit": 5720,
      "Ġartist": 5721,
      "ency": 5722,
      "Ġbought": 5723,
      "ĠMich": 5724,
      "Ġamb": 5725,
      "Ġremote": 5726,
      "Ġagreement": 5727,
      "fol": 5728,
      "ĠLib": 5729,
      "Ġrobust": 5730,
      "ĠBio": 5731,
      "Ġeager": 5732,
      "Ġasking": 5733,
      "Ġmanner": 5734,
      "Ġcer": 5735,
      "zer": 5736,
      "Ġancient": 5737,
      "Ġpair": 5738,
      "ĠGerman": 5739,
      "ĠClub": 5740,
      "Ġsand": 5741,
      "Ġfill": 5742,
      "ĠVo": 5743,
      "Ġking": 5744,
      "isc": 5745,
      "Ġpublish": 5746,
      "Ġmulti": 5747,
      "umption": 5748,
      "Ġwire": 5749,
      "Ġspeech": 5750,
      "tering": 5751,
      "Ġchic": 5752,
      "Ġidentity": 5753,
      "ĠInte": 5754,
      "Ġsna": 5755,
      "Ġlandscape": 5756,
      "Ġfeels": 5757,
      "Ġfrequently": 5758,
      "ĠIP": 5759,
      "Ġena": 5760,
      "Ġexpectations": 5761,
      "OW": 5762,
      "ĠFac": 5763,
      "nuine": 5764,
      "ulating": 5765,
      "hab": 5766,
      "ially": 5767,
      "Ġupdates": 5768,
      "Ġworldwide": 5769,
      "Ġmostly": 5770,
      "Ġtrial": 5771,
      "ĠUSA": 5772,
      "levision": 5773,
      "Ġartists": 5774,
      "Ġforget": 5775,
      "Ġtend": 5776,
      "Ġpal": 5777,
      "Ġlibrary": 5778,
      "Ġdial": 5779,
      "icy": 5780,
      "ĠPen": 5781,
      "ĠWomen": 5782,
      "ĠOrgan": 5783,
      "ĠMad": 5784,
      "Ġbattle": 5785,
      ".A": 5786,
      "Ġ.A": 5787,
      "Ġinh": 5788,
      "Ġ95": 5789,
      "rif": 5790,
      "Ġcro": 5791,
      "ĠSpr": 5792,
      "rency": 5793,
      "dequ": 5794,
      "ĠMount": 5795,
      "Ġaffected": 5796,
      "Ġteeth": 5797,
      "Ġruns": 5798,
      "ĠFig": 5799,
      "Ġsuit": 5800,
      "ĠArch": 5801,
      "Ġwinning": 5802,
      "Ġpai": 5803,
      "ete": 5804,
      "Ġobtain": 5805,
      "arent": 5806,
      "Ġdistinct": 5807,
      "Ġopened": 5808,
      "Ġtoward": 5809,
      "Ġner": 5810,
      "Ġsteel": 5811,
      "tical": 5812,
      "ome": 5813,
      "ĠInf": 5814,
      "Ġspeaker": 5815,
      "Ġrecovery": 5816,
      "Ġmarriage": 5817,
      "nne": 5818,
      "Ġrevealed": 5819,
      "ooking": 5820,
      "theless": 5821,
      "Ġdesk": 5822,
      "Ġera": 5823,
      "Ġreached": 5824,
      "Ġfaster": 5825,
      "vant": 5826,
      "rors": 5827,
      "gent": 5828,
      "Ġindeed": 5829,
      "Ġexposure": 5830,
      "Ġtrain": 5831,
      "Ġinstant": 5832,
      "rum": 5833,
      "Ġthorough": 5834,
      "Ġcausing": 5835,
      "Ġfruit": 5836,
      "Ġcat": 5837,
      "nied": 5838,
      "Ġaims": 5839,
      "Ġunde": 5840,
      "espo": 5841,
      "ĠChris": 5842,
      "Ġminute": 5843,
      "Ġmuscle": 5844,
      "Ġsenior": 5845,
      "ĠFort": 5846,
      "Ġvolun": 5847,
      "ĠDoc": 5848,
      "Ġdrugs": 5849,
      "Ġsud": 5850,
      "ĠFind": 5851,
      "oing": 5852,
      "estival": 5853,
      "lit": 5854,
      "Ġunivers": 5855,
      "Ġarticles": 5856,
      "Ġconv": 5857,
      "ĠPur": 5858,
      "sters": 5859,
      "Ġshift": 5860,
      "nsions": 5861,
      "Ġtransp": 5862,
      "ression": 5863,
      "Ġmenu": 5864,
      "Ġship": 5865,
      "Ġunlike": 5866,
      "Ġresol": 5867,
      "panese": 5868,
      "ĠMicrosoft": 5869,
      "Ġdifferences": 5870,
      "Ġinterface": 5871,
      "Ġstream": 5872,
      "main": 5873,
      "ĠElect": 5874,
      "Ġsolar": 5875,
      "mato": 5876,
      "ĠDig": 5877,
      "Ġstores": 5878,
      "Ġnoted": 5879,
      "ĠChildr": 5880,
      "ishing": 5881,
      "Ġtale": 5882,
      "ĠChildre": 5883,
      "ĠTO": 5884,
      "imo": 5885,
      "IM": 5886,
      "Ġagency": 5887,
      "ĠDescription": 5888,
      "Ġshares": 5889,
      "ĠLong": 5890,
      "ĠSeco": 5891,
      "sac": 5892,
      "vin": 5893,
      "Ġsituations": 5894,
      "ĠCasino": 5895,
      "Ġconsumers": 5896,
      "Ġincorpo": 5897,
      "Ġshut": 5898,
      "Ġ-related": 5899,
      "Ġbike": 5900,
      "Ġstars": 5901,
      "Ġlies": 5902,
      "Ġ\"ĊĊ": 5903,
      "Ġapartment": 5904,
      "roy": 5905,
      "Ġdistribution": 5906,
      "Ġyes": 5907,
      "coin": 5908,
      "idden": 5909,
      "Ġ\"T": 5910,
      "Ġworse": 5911,
      "Ġ400": 5912,
      "ĠDirector": 5913,
      "Ġpurposes": 5914,
      "ĠSch": 5915,
      "table": 5916,
      "ĠNor": 5917,
      "ĠUN": 5918,
      "ushing": 5919,
      "ĠChildren": 5920,
      "Ġlegis": 5921,
      "Ġexternal": 5922,
      "Ġvast": 5923,
      "ĠProject": 5924,
      "Ġmal": 5925,
      "ĠWord": 5926,
      "tending": 5927,
      "ox": 5928,
      "Ġdrink": 5929,
      "Ġposted": 5930,
      "Ġfeelings": 5931,
      "many": 5932,
      "Ġcycle": 5933,
      "Ġquiet": 5934,
      "Ġfunding": 5935,
      "Ġstring": 5936,
      "oned": 5937,
      "Ġpil": 5938,
      "Ġbreath": 5939,
      "ĠThose": 5940,
      "ĠShow": 5941,
      "hent": 5942,
      "xpe": 5943,
      "ĠHistory": 5944,
      "Ġproposed": 5945,
      "see": 5946,
      "Ġdetermined": 5947,
      "Ġproviders": 5948,
      "ĠFamily": 5949,
      "Ġforces": 5950,
      "ĠHan": 5951,
      "Ġalcohol": 5952,
      "iest": 5953,
      "Ġdebt": 5954,
      "Ġhearing": 5955,
      "Ġadh": 5956,
      "ĠGuide": 5957,
      "Ġparking": 5958,
      "Ġupdated": 5959,
      "Ġ43": 5960,
      "Ġnone": 5961,
      "Ġbathroom": 5962,
      "ĠMusic": 5963,
      "Ġ51": 5964,
      "ĠSear": 5965,
      "ĠGold": 5966,
      "ĠBank": 5967,
      "betes": 5968,
      "Ġdelight": 5969,
      "mands": 5970,
      "ifies": 5971,
      "Ġexpression": 5972,
      "rators": 5973,
      "Ġtele": 5974,
      "repr": 5975,
      "Ġrot": 5976,
      "fortunately": 5977,
      "Ġmap": 5978,
      "ĠRea": 5979,
      "Ġstret": 5980,
      "ĠTre": 5981,
      "rastructure": 5982,
      "Ġgenuine": 5983,
      "lt": 5984,
      "nation": 5985,
      "Ġanxiety": 5986,
      "Ġobjects": 5987,
      "Ġpremium": 5988,
      "ams": 5989,
      "Ġmeal": 5990,
      "Ġ52": 5991,
      "isms": 5992,
      "Ġfields": 5993,
      "ĠExper": 5994,
      "Ġ</": 5995,
      "ĠGame": 5996,
      "tre": 5997,
      "Ġemergency": 5998,
      "Ġnuc": 5999,
      "Ġequal": 6000,
      "Ġ/>": 6001,
      "ĠSecon": 6002,
      "ĠSecond": 6003,
      "Ġcup": 6004,
      "rier": 6005,
      "Ġdecl": 6006,
      "Ġ\"We": 6007,
      "Ġven": 6008,
      "Ġexploring": 6009,
      "Ġnine": 6010,
      "cited": 6011,
      "ĠSea": 6012,
      "Ġauthent": 6013,
      "Ġsupported": 6014,
      "Ġshor": 6015,
      "Ġstrategic": 6016,
      "Ġconducted": 6017,
      "Ġcoord": 6018,
      "Ġaccident": 6019,
      "Ġcitizens": 6020,
      "Ġadap": 6021,
      "alse": 6022,
      "signed": 6023,
      "Ġhousehold": 6024,
      "gor": 6025,
      "ĠCentral": 6026,
      "eek": 6027,
      "Ġremoved": 6028,
      "RA": 6029,
      "Ġpred": 6030,
      "Ġdynamic": 6031,
      "PA": 6032,
      "Ġmanaging": 6033,
      "Ġtren": 6034,
      "Ġbright": 6035,
      "Ġmachines": 6036,
      "Ġlifestyle": 6037,
      "Ġrent": 6038,
      "Ġexcept": 6039,
      "ourth": 6040,
      "Ġweak": 6041,
      "ĠAD": 6042,
      "ĠFood": 6043,
      "Ġsuggested": 6044,
      "Ġcritic": 6045,
      "Ġputting": 6046,
      "Ġdinner": 6047,
      "Ġadapt": 6048,
      "Ġ49": 6049,
      "Ġawareness": 6050,
      "Ġtypical": 6051,
      "ĠProte": 6052,
      "Ġrandom": 6053,
      "Ġdele": 6054,
      "umn": 6055,
      "Ġ{": 6056,
      "ĠMaster": 6057,
      "Ġconver": 6058,
      "Ġelement": 6059,
      "ĠID": 6060,
      "Ġacces": 6061,
      "Ġspiritual": 6062,
      "Ġbreakfast": 6063,
      "Ġroutine": 6064,
      "Ġrac": 6065,
      "isation": 6066,
      "Ġchosen": 6067,
      "Ġvariable": 6068,
      "ĠGovernment": 6069,
      "ĠAND": 6070,
      "ĠMat": 6071,
      "Ġinfo": 6072,
      "Ġtransition": 6073,
      "Ġcombined": 6074,
      "vas": 6075,
      "Ġbegins": 6076,
      "Ġbeneficial": 6077,
      "Ġmur": 6078,
      "ĠShould": 6079,
      "Ġtough": 6080,
      "Ġdesired": 6081,
      "Ġmarried": 6082,
      "Ġconfident": 6083,
      "Ġinstallation": 6084,
      "Ġ-m": 6085,
      "rup": 6086,
      "pro": 6087,
      "Ġmiss": 6088,
      "Ġresulting": 6089,
      "Ġnearby": 6090,
      "Ġ-g": 6091,
      "pons": 6092,
      "Ġsche": 6093,
      "ĠFranc": 6094,
      "Ġappoint": 6095,
      "Ġtransform": 6096,
      "Ġadvertising": 6097,
      "Ġmissing": 6098,
      "ĠCert": 6099,
      "Ġraise": 6100,
      "Ġinche": 6101,
      "Ġbrother": 6102,
      "craft": 6103,
      "meters": 6104,
      "Ġconference": 6105,
      "Ġinches": 6106,
      "Co": 6107,
      "ĠFire": 6108,
      "Ġgover": 6109,
      "Ġsample": 6110,
      "Ġrub": 6111,
      "ĠMode": 6112,
      "ums": 6113,
      "Ġincreases": 6114,
      "ĠJapanese": 6115,
      "Ġtiss": 6116,
      "well": 6117,
      "rete": 6118,
      "ĠSimp": 6119,
      ".I": 6120,
      "Ġ.I": 6121,
      "Ġclinical": 6122,
      "Ġforest": 6123,
      "Ġentertainment": 6124,
      "Ġobserved": 6125,
      "owers": 6126,
      "Ġ\")": 6127,
      "ĠMiss": 6128,
      "Ġroles": 6129,
      "iller": 6130,
      "Ġfulf": 6131,
      "Ġexcited": 6132,
      "Ġcentr": 6133,
      "ĠAcc": 6134,
      "Ġmilk": 6135,
      "ĠWestern": 6136,
      "sn": 6137,
      "Ġended": 6138,
      "titude": 6139,
      "ĠHotel": 6140,
      "Ġinterpret": 6141,
      "ĠSecurity": 6142,
      "Ġdura": 6143,
      "ske": 6144,
      "istence": 6145,
      "Ġblen": 6146,
      "tin": 6147,
      "Ġinstructions": 6148,
      "ators": 6149,
      "Ġfreedom": 6150,
      "Ġdepartment": 6151,
      "Ġgenerate": 6152,
      "Ġwindows": 6153,
      "Ġmovies": 6154,
      "Ġ-on": 6155,
      "ĠBill": 6156,
      "Ġuniversity": 6157,
      "Ġshipping": 6158,
      "Ġresistance": 6159,
      "ĠConne": 6160,
      "Ġze": 6161,
      "eal": 6162,
      "ĠRoad": 6163,
      "Ġschol": 6164,
      "Ġease": 6165,
      "Ġbl": 6166,
      "ĠLu": 6167,
      "Ġsongs": 6168,
      "ĠJapan": 6169,
      "Ġholding": 6170,
      "Ġneuro": 6171,
      "Ġsad": 6172,
      "Ġscenar": 6173,
      "Ġstanding": 6174,
      "Ġ-sc": 6175,
      "Ġclar": 6176,
      "allow": 6177,
      "Ġappeal": 6178,
      "Ġtotally": 6179,
      "igns": 6180,
      "ounded": 6181,
      "ĠVic": 6182,
      "ĠStep": 6183,
      "Ġwhom": 6184,
      "ordinary": 6185,
      "Ġfailure": 6186,
      "Ġconsumption": 6187,
      "Ġdefined": 6188,
      "ĠSupport": 6189,
      "Ġgambling": 6190,
      "ĠPeter": 6191,
      "Ġvote": 6192,
      "ĠNote": 6193,
      "rine": 6194,
      "Ġscan": 6195,
      "Ġcorporate": 6196,
      "Ġrecognized": 6197,
      "Ġfantastic": 6198,
      "Ġpartnership": 6199,
      "Ġ64": 6200,
      "ĠObama": 6201,
      "ĠWil": 6202,
      "Ġproud": 6203,
      "ero": 6204,
      "Ġinspe": 6205,
      "Ġsustainable": 6206,
      "Ġcooking": 6207,
      "Ġong": 6208,
      "ĠFrance": 6209,
      "Ġreturned": 6210,
      "ĠAcade": 6211,
      "Ġvul": 6212,
      "Ġflight": 6213,
      "Ġcommo": 6214,
      "ĠEnter": 6215,
      "Ġrelatively": 6216,
      "Ġsettle": 6217,
      "BA": 6218,
      "Ġengineering": 6219,
      "Ġphase": 6220,
      "ĠHaving": 6221,
      "olden": 6222,
      "ĠAL": 6223,
      "ym": 6224,
      "liance": 6225,
      "ĠOk": 6226,
      "Ġongoing": 6227,
      "gage": 6228,
      "Ġassessment": 6229,
      "Ġimprovement": 6230,
      "ĠCarol": 6231,
      "bat": 6232,
      "iler": 6233,
      "ĠJour": 6234,
      "Ġmessages": 6235,
      "Ġpheno": 6236,
      "Ġexist": 6237,
      "ĠMedic": 6238,
      "Ġconsumer": 6239,
      "Ġcoast": 6240,
      "ĠGermany": 6241,
      "Ġdepth": 6242,
      "yl": 6243,
      "Ġparticipate": 6244,
      "Ġgrade": 6245,
      "Ġju": 6246,
      "Ġengagement": 6247,
      "Ġprocedure": 6248,
      "ats": 6249,
      "Ġwra": 6250,
      "alo": 6251,
      "icks": 6252,
      "Ġguest": 6253,
      "Ġconnections": 6254,
      "Ġspaces": 6255,
      "Ġswift": 6256,
      "Ġprecise": 6257,
      "Ġpot": 6258,
      "igo": 6259,
      "Ġrevenue": 6260,
      "Ġawe": 6261,
      "Ġ!!!": 6262,
      "Ġourselves": 6263,
      "Ġwash": 6264,
      "Ġ46": 6265,
      "Ġviolence": 6266,
      "Ġregularly": 6267,
      "Ġorganic": 6268,
      "ĠTwitter": 6269,
      "Ġknowing": 6270,
      "vestors": 6271,
      "ĠThus": 6272,
      "ĠJul": 6273,
      "iorit": 6274,
      "Ġseaso": 6275,
      "Ġ-spe": 6276,
      "Ġpaying": 6277,
      "Ġregions": 6278,
      "Ġgoods": 6279,
      "ws": 6280,
      "ĠTechnology": 6281,
      "Ġsuccessfully": 6282,
      "Ġcasinos": 6283,
      "Ġadvoc": 6284,
      "Ġconclu": 6285,
      "Ġabsor": 6286,
      "Ġfurniture": 6287,
      "Ġcutting": 6288,
      "conds": 6289,
      "iron": 6290,
      "Ġid": 6291,
      "vity": 6292,
      "Ġintroduce": 6293,
      "Ġinform": 6294,
      "dic": 6295,
      "ĠInit": 6296,
      "eah": 6297,
      "Ġcriminal": 6298,
      "ĠRE": 6299,
      "ncert": 6300,
      "Ġinstitutions": 6301,
      "Ġadministration": 6302,
      "lessly": 6303,
      "ĠMem": 6304,
      "ĠPD": 6305,
      "Ġathle": 6306,
      "Ġcontemporary": 6307,
      "Ġcrypto": 6308,
      "Ġgear": 6309,
      "ĠBeach": 6310,
      "Ġboasts": 6311,
      "Ġseat": 6312,
      "Ġhabit": 6313,
      "prise": 6314,
      "iat": 6315,
      "Ġsurvey": 6316,
      "Ġshar": 6317,
      "Ġfixed": 6318,
      "ĠSpan": 6319,
      "ĠLearning": 6320,
      "Ġimpressive": 6321,
      "Ġdiseases": 6322,
      "Ġtelevision": 6323,
      "ĠIsland": 6324,
      "Ġindustrial": 6325,
      "Ġcommand": 6326,
      "Ġprinciples": 6327,
      "Ġderi": 6328,
      "Ġhapp": 6329,
      "Ġtro": 6330,
      "rizo": 6331,
      "Ġportion": 6332,
      "Ġstick": 6333,
      "Ġemployed": 6334,
      "mony": 6335,
      "Ġfort": 6336,
      "ffective": 6337,
      "Ġcircumstances": 6338,
      "Ġupper": 6339,
      "owered": 6340,
      "ĠAndroid": 6341,
      "Ġenabling": 6342,
      "Ġyield": 6343,
      "esth": 6344,
      "Ġregulations": 6345,
      "ĠFea": 6346,
      "ĠDid": 6347,
      "Ġprivacy": 6348,
      "Ġreceiving": 6349,
      "Ġimmediate": 6350,
      "Ġfro": 6351,
      "Ġmg": 6352,
      "ENT": 6353,
      "riting": 6354,
      "Ġmark": 6355,
      "Ġcollaboration": 6356,
      "Ġpreferences": 6357,
      "Ġoutcomes": 6358,
      "Ġproto": 6359,
      "Ġfacilitate": 6360,
      "Ġdoors": 6361,
      "Ġsitting": 6362,
      "berg": 6363,
      "Ġfollows": 6364,
      "MS": 6365,
      "Ġlunch": 6366,
      "Ġdome": 6367,
      "rics": 6368,
      "di": 6369,
      "ĠMaybe": 6370,
      "Ġsac": 6371,
      "rain": 6372,
      "Ġcheap": 6373,
      "noo": 6374,
      "Ġsessions": 6375,
      "ĠSearch": 6376,
      "Ġ47": 6377,
      "ĠMedical": 6378,
      "Ġcorner": 6379,
      "Ġgender": 6380,
      "Ġok": 6381,
      "Ġassets": 6382,
      "ĠDiv": 6383,
      "Ġsurgery": 6384,
      "Ġ193": 6385,
      "rupt": 6386,
      "Ġdoubt": 6387,
      "Ġseconds": 6388,
      "Ġversat": 6389,
      "ĠSol": 6390,
      "ĠWel": 6391,
      "Ġliquid": 6392,
      "Ġphiloso": 6393,
      "Ġinspired": 6394,
      "ĠCommit": 6395,
      "ko": 6396,
      "OD": 6397,
      "Ġwriter": 6398,
      "Ġlisten": 6399,
      "Ġhousing": 6400,
      "Ġregardless": 6401,
      "Ġcable": 6402,
      "ĠAuthor": 6403,
      "ĠTeam": 6404,
      "uts": 6405,
      "ĠHuman": 6406,
      "ships": 6407,
      "Ġultimately": 6408,
      "acious": 6409,
      "Ġmeat": 6410,
      "Ġbusy": 6411,
      "Ġbetting": 6412,
      "ias": 6413,
      "worth": 6414,
      "Ġwidely": 6415,
      "ĠGlobal": 6416,
      "Ġremin": 6417,
      "ĠConc": 6418,
      "Ġdistrict": 6419,
      "Ġring": 6420,
      "rized": 6421,
      "Ġguidelines": 6422,
      "zen": 6423,
      "Ġchair": 6424,
      "ngthe": 6425,
      "Ġchain": 6426,
      "ĠPersonal": 6427,
      "Ġremaining": 6428,
      "Ġdiscip": 6429,
      "sert": 6430,
      "tery": 6431,
      "Ġdatabase": 6432,
      "Ġrealize": 6433,
      "Ġbrands": 6434,
      "ĠUnion": 6435,
      "ĠStand": 6436,
      "Ġkill": 6437,
      "Ġimproving": 6438,
      "Ġinstalled": 6439,
      "nomic": 6440,
      "ĠAT": 6441,
      "Ġmonthly": 6442,
      "turally": 6443,
      "Ġparent": 6444,
      "Ġdefense": 6445,
      "Ġcloud": 6446,
      "Ġproceed": 6447,
      "Ġbedroom": 6448,
      "inch": 6449,
      "Ġneck": 6450,
      "Ġ>Ċ": 6451,
      "Ġcyc": 6452,
      "Ġkilled": 6453,
      "otal": 6454,
      "Ġdiscussed": 6455,
      "ĠFil": 6456,
      "Ġupcoming": 6457,
      "Ġfacility": 6458,
      "CC": 6459,
      "Ġseam": 6460,
      "SA": 6461,
      "Ġperma": 6462,
      "Ġmerely": 6463,
      "ĠExperience": 6464,
      "Ġbelieved": 6465,
      "tern": 6466,
      "Ġspeaking": 6467,
      "iry": 6468,
      "ĠHi": 6469,
      "ĠYa": 6470,
      "Ġthin": 6471,
      "Ġanswers": 6472,
      "ches": 6473,
      "cer": 6474,
      "ĠRobert": 6475,
      "ndemic": 6476,
      "Ġstructures": 6477,
      "alen": 6478,
      "ĠHill": 6479,
      "Ġcontrast": 6480,
      "Ġadvantages": 6481,
      "Ġpreferred": 6482,
      "dar": 6483,
      "ĠHea": 6484,
      "ĠNext": 6485,
      "Ġ!)": 6486,
      "ĠBud": 6487,
      "Ġpositions": 6488,
      "pic": 6489,
      "ĠClo": 6490,
      "uge": 6491,
      "Ġdeser": 6492,
      "lements": 6493,
      "ĠRock": 6494,
      "Ġremi": 6495,
      "Ġprominent": 6496,
      "mary": 6497,
      "Ġgun": 6498,
      "Ġfocusing": 6499,
      "vate": 6500,
      "Ġpanel": 6501,
      "Ġisland": 6502,
      "ĠCanad": 6503,
      "mps": 6504,
      "Ġprocedures": 6505,
      "Ġplanet": 6506,
      "ĠEnv": 6507,
      "Ġmotion": 6508,
      "........": 6509,
      "Ġjoint": 6510,
      "ĠProv": 6511,
      "sight": 6512,
      "Ġcharges": 6513,
      "Ġentirely": 6514,
      "Ġtrends": 6515,
      "Ġmoments": 6516,
      "Ġjoined": 6517,
      "Ġnative": 6518,
      "icago": 6519,
      "Ġnorm": 6520,
      "ape": 6521,
      "Ġfellow": 6522,
      "ĠBlo": 6523,
      "Ġsupports": 6524,
      "Ġcomponent": 6525,
      "ki": 6526,
      "Ġfoundation": 6527,
      "Ġcru": 6528,
      "Ġcle": 6529,
      "Ġtreated": 6530,
      "Ġsupposed": 6531,
      "Ġbroken": 6532,
      "ĠDemocra": 6533,
      "Ġissu": 6534,
      "viso": 6535,
      "Ġsatisfaction": 6536,
      "Ġ-R": 6537,
      "ĠNever": 6538,
      "dit": 6539,
      "Ġenables": 6540,
      "rence": 6541,
      "ĠVideo": 6542,
      "Ġelectronic": 6543,
      "Ġrecognize": 6544,
      "ĠMuseum": 6545,
      "ĠMean": 6546,
      "Ġreferred": 6547,
      "ĠKorea": 6548,
      "ĠMarket": 6549,
      ",ĊĊ": 6550,
      "uality": 6551,
      "Ġstone": 6552,
      "nancy": 6553,
      "Ġprofit": 6554,
      "Ġske": 6555,
      "ĠCard": 6556,
      "Ġcompare": 6557,
      "Ġofficials": 6558,
      "reaming": 6559,
      "pet": 6560,
      "Ġboost": 6561,
      "Ġbor": 6562,
      "Ġholds": 6563,
      "Ġsn": 6564,
      "Ġlinked": 6565,
      "Ġinfrastructure": 6566,
      "ssible": 6567,
      "Ġmusical": 6568,
      "Ġinvolving": 6569,
      "Ġ54": 6570,
      "Ġsides": 6571,
      "ĠScott": 6572,
      "Ġcapable": 6573,
      "Ġlights": 6574,
      "tche": 6575,
      "Ġhero": 6576,
      "pointed": 6577,
      "ĠSmith": 6578,
      "Ġengaged": 6579,
      "ighter": 6580,
      "Ġcovers": 6581,
      "Ġmit": 6582,
      "ĠBit": 6583,
      "ĠHam": 6584,
      "ĠAsse": 6585,
      "Ġassign": 6586,
      "Ġfif": 6587,
      "ĠðŁ": 6588,
      "Ġpure": 6589,
      "ipp": 6590,
      "ĠFoundation": 6591,
      "bies": 6592,
      "hick": 6593,
      "ĠEm": 6594,
      "ĠView": 6595,
      "ĠFun": 6596,
      "Ġrenew": 6597,
      "Ġfindings": 6598,
      "Ġlived": 6599,
      "Ġsufficient": 6600,
      "Ġbala": 6601,
      "nym": 6602,
      "Ġrespon": 6603,
      "Ġusage": 6604,
      "Ġ-like": 6605,
      "igration": 6606,
      "ĠBer": 6607,
      "Ġstruggle": 6608,
      "Ġcentre": 6609,
      "Ġtwice": 6610,
      "au": 6611,
      "ventional": 6612,
      "Ġ\"A": 6613,
      "ĠAnn": 6614,
      "eak": 6615,
      "Ġrespond": 6616,
      "reprene": 6617,
      "Ġmanufacturing": 6618,
      "Ġsizes": 6619,
      "Ġthick": 6620,
      "ĠDistrict": 6621,
      "Ġ53": 6622,
      "Ġdelay": 6623,
      "Ġdescription": 6624,
      "OC": 6625,
      "Ġ-L": 6626,
      "Ġ-being": 6627,
      "Ġbodies": 6628,
      "Ġlessons": 6629,
      "Ġchoosing": 6630,
      "Ġconcepts": 6631,
      "ĠRef": 6632,
      "Ġautomatically": 6633,
      "Ġvan": 6634,
      "ĠMult": 6635,
      "Ġepisode": 6636,
      "ucks": 6637,
      "Ġfigures": 6638,
      "Ġsituated": 6639,
      "ĠJud": 6640,
      "ĠWas": 6641,
      "Ġlaunched": 6642,
      "Ġnutrition": 6643,
      "lication": 6644,
      "istan": 6645,
      "Ġslots": 6646,
      "ĠOld": 6647,
      ".e": 6648,
      "Ġ.e": 6649,
      "Ġdime": 6650,
      "Ġanywhere": 6651,
      "Ġnd": 6652,
      "Ġ%)": 6653,
      "Ġmole": 6654,
      "Ġexpan": 6655,
      "oney": 6656,
      "Ġexpand": 6657,
      "Ġurban": 6658,
      "sister": 6659,
      "stan": 6660,
      "pha": 6661,
      "Ġinqu": 6662,
      "Ġperfectly": 6663,
      "Ġlaugh": 6664,
      "bits": 6665,
      "Ġinnovation": 6666,
      "Ġcommonly": 6667,
      "Ġpull": 6668,
      "Ġmonitoring": 6669,
      "tingu": 6670,
      "Ġprepar": 6671,
      "ĠÂ®": 6672,
      "âĢĶ": 6673,
      "Ġbringing": 6674,
      "ĠInvest": 6675,
      "ĠLook": 6676,
      "Ġfunctional": 6677,
      "ĠThom": 6678,
      "ĠBenef": 6679,
      "Ġthea": 6680,
      "ĠVirgin": 6681,
      "ĠÃ": 6682,
      "xe": 6683,
      "Ġevolution": 6684,
      "ĠSil": 6685,
      "ĠMS": 6686,
      "Ġextend": 6687,
      "sty": 6688,
      "torney": 6689,
      "Ġmedicine": 6690,
      "rship": 6691,
      "Ġkinds": 6692,
      "ĠPress": 6693,
      "Ġtailored": 6694,
      "cuit": 6695,
      "Ġabuse": 6696,
      "aro": 6697,
      "Ġloans": 6698,
      "Ġcalling": 6699,
      "aking": 6700,
      "Ġlite": 6701,
      "ĠRev": 6702,
      "Ġagent": 6703,
      "gas": 6704,
      "Ġarrived": 6705,
      "rous": 6706,
      "Ġhorse": 6707,
      "Ġcapabilities": 6708,
      ",'": 6709,
      "ĠMain": 6710,
      "jected": 6711,
      "ĠRad": 6712,
      "ĠMedia": 6713,
      "Ġclim": 6714,
      "Ġdeals": 6715,
      "Ġrepresenta": 6716,
      "state": 6717,
      "ĠFurthermore": 6718,
      "nial": 6719,
      "Ġrough": 6720,
      "Ġ,ĊĊ": 6721,
      "ĠOrig": 6722,
      "Ġherself": 6723,
      "ĠIndust": 6724,
      "themat": 6725,
      "rel": 6726,
      "Ġsubmit": 6727,
      "Ġmassive": 6728,
      "hibit": 6729,
      "Ġgreatest": 6730,
      "Ġstyles": 6731,
      "Ġheight": 6732,
      "weight": 6733,
      "isa": 6734,
      "ĠCH": 6735,
      "Ġdrivers": 6736,
      "Ġargument": 6737,
      "air": 6738,
      "Ġdepends": 6739,
      "Ġche": 6740,
      "Ġtempera": 6741,
      "Ġoptimal": 6742,
      "Ġtrend": 6743,
      "Ġvulne": 6744,
      "Ġcategory": 6745,
      "Ġsister": 6746,
      "Ġdollars": 6747,
      "IA": 6748,
      "Ġcaptiv": 6749,
      "Ġ-th": 6750,
      "Ġconcerned": 6751,
      "Ġattractive": 6752,
      "aching": 6753,
      "Ġturns": 6754,
      "ĠAccess": 6755,
      "colate": 6756,
      "Ġemotions": 6757,
      "Ġrestaurants": 6758,
      "ĠChicago": 6759,
      "netic": 6760,
      "Ġresidence": 6761,
      "Ġhydro": 6762,
      "ental": 6763,
      "ĠGrand": 6764,
      "Ġ,'": 6765,
      "Ġdescribe": 6766,
      "ironment": 6767,
      "Ġcrime": 6768,
      "Ġene": 6769,
      "ĠIll": 6770,
      "LC": 6771,
      "ained": 6772,
      "ĠPract": 6773,
      "****": 6774,
      "Ġfailed": 6775,
      "Ġ\".ĊĊ": 6776,
      "Ġconclusion": 6777,
      "Ġped": 6778,
      "Ġfav": 6779,
      "Ġ192": 6780,
      "Ġcarried": 6781,
      "ĠMas": 6782,
      "Ġtransportation": 6783,
      "Ġsme": 6784,
      "Ġ85": 6785,
      "Ġvibrant": 6786,
      "</": 6787,
      "Ġrealm": 6788,
      "Ġnoticed": 6789,
      "Ġfilms": 6790,
      "Ġrecording": 6791,
      "Ġappeared": 6792,
      "gazine": 6793,
      "ĠAud": 6794,
      "Ġmoist": 6795,
      "reg": 6796,
      "Ġ56": 6797,
      "Ġearn": 6798,
      "Ġtaught": 6799,
      "ĠSpanish": 6800,
      "ĠPlace": 6801,
      "Ġformed": 6802,
      "Ġfitness": 6803,
      "Ġorders": 6804,
      "Ġblend": 6805,
      "Ġflowers": 6806,
      "Ġcrisis": 6807,
      "sterday": 6808,
      "ashe": 6809,
      "Ġcloser": 6810,
      "ĠBla": 6811,
      "ĠRussian": 6812,
      "thes": 6813,
      "Ġchannel": 6814,
      "Ġrecorded": 6815,
      "Ġdelivered": 6816,
      "what": 6817,
      "Ġages": 6818,
      "thy": 6819,
      "ĠCoo": 6820,
      "Ġshoes": 6821,
      "Ġlap": 6822,
      "licit": 6823,
      "ĠLim": 6824,
      "Ġfacing": 6825,
      "tense": 6826,
      "Ġsalt": 6827,
      "Ġnotable": 6828,
      "Ġlabor": 6829,
      "Ġpromoting": 6830,
      "Ġachieved": 6831,
      "ĠEnergy": 6832,
      "gorith": 6833,
      "ĠLearn": 6834,
      "Ġmarked": 6835,
      "Ġinvestors": 6836,
      "Ġelection": 6837,
      "Ġplanned": 6838,
      "Ġpurchased": 6839,
      "name": 6840,
      "never": 6841,
      "Ġince": 6842,
      "merce": 6843,
      "Ġpriorit": 6844,
      "dequate": 6845,
      "ĠHall": 6846,
      "ounted": 6847,
      "cking": 6848,
      "Ġshoul": 6849,
      "ĠUser": 6850,
      "ĠFla": 6851,
      "ributing": 6852,
      "Ġgri": 6853,
      "Ġcaught": 6854,
      "Ġfinds": 6855,
      "Ġcorrespo": 6856,
      "ĠCEO": 6857,
      "Ġreaction": 6858,
      "Ġoccup": 6859,
      "Ġhundreds": 6860,
      "ĠLive": 6861,
      "Ġbigger": 6862,
      "Ġwearing": 6863,
      "Ġexecu": 6864,
      "las": 6865,
      "Ġattacks": 6866,
      "Ġemployment": 6867,
      "Ġvillage": 6868,
      "Ġscientists": 6869,
      "Ġdangerous": 6870,
      "Ġconvenience": 6871,
      "ĠRight": 6872,
      "ĠUnderstanding": 6873,
      "ĠLit": 6874,
      "Ġincident": 6875,
      "Ġannounce": 6876,
      "Ġarm": 6877,
      "Ġdegrees": 6878,
      "Ġfly": 6879,
      "ras": 6880,
      "Ġreduction": 6881,
      "ĠLight": 6882,
      "stone": 6883,
      "ulta": 6884,
      "keting": 6885,
      "Ġturning": 6886,
      "Ġrental": 6887,
      "Ġtight": 6888,
      "itution": 6889,
      "ĠControl": 6890,
      "Ġexplained": 6891,
      "Ġconsistently": 6892,
      "Ġsigned": 6893,
      "Ġinfection": 6894,
      "Ġagr": 6895,
      "Ġadhe": 6896,
      "ulty": 6897,
      "Ġphra": 6898,
      "Ġamen": 6899,
      "Ġintelligence": 6900,
      "Ġregistration": 6901,
      "ĠCongress": 6902,
      "ĠRussia": 6903,
      "CA": 6904,
      "Ġinhe": 6905,
      "Ġinven": 6906,
      "Ġreturns": 6907,
      "Ġreflect": 6908,
      "Ġdrawing": 6909,
      "Ġforced": 6910,
      "aco": 6911,
      "Ġfourth": 6912,
      "stal": 6913,
      "ĠSociety": 6914,
      "ĠPra": 6915,
      "ĠNY": 6916,
      "ĠThough": 6917,
      "Ġdriven": 6918,
      "Ġcarefully": 6919,
      "Ġcream": 6920,
      "case": 6921,
      "mbly": 6922,
      "Ġmile": 6923,
      "IR": 6924,
      "Ġcere": 6925,
      "lets": 6926,
      "Ġsky": 6927,
      "rus": 6928,
      "Ġelectro": 6929,
      "Ġstunning": 6930,
      "Ġnarrative": 6931,
      "Ġroot": 6932,
      "ĠMiddle": 6933,
      "Ġpayments": 6934,
      "Ġdecade": 6935,
      "Ġvisiting": 6936,
      "Ġmyster": 6937,
      "ĠLy": 6938,
      "ĠCla": 6939,
      "Ġyounger": 6940,
      "Ġeveryday": 6941,
      "Ġproven": 6942,
      "Ġconstantly": 6943,
      "Ġinjuries": 6944,
      "ĠClea": 6945,
      "UT": 6946,
      "Ġ-la": 6947,
      "Ġends": 6948,
      "noon": 6949,
      "Ġexperiment": 6950,
      "Ġbridge": 6951,
      "Ġconsequences": 6952,
      "Ġmic": 6953,
      "Ġ-an": 6954,
      "igan": 6955,
      "ĠUl": 6956,
      "Ġ250": 6957,
      "Ġminimal": 6958,
      "esis": 6959,
      "Ġ]ĊĊ": 6960,
      "Ġoccurs": 6961,
      "ĠAge": 6962,
      "Ġmeals": 6963,
      "ĠParty": 6964,
      "ĠMel": 6965,
      "Ġedition": 6966,
      "Ġaccepted": 6967,
      "ĠAdmin": 6968,
      "Ġbuildings": 6969,
      "Ġpandemic": 6970,
      "Ġtells": 6971,
      "ĠSour": 6972,
      "Ġpleasure": 6973,
      "graphic": 6974,
      "Ġelectrical": 6975,
      "ĠPac": 6976,
      "ĠProfession": 6977,
      "ĠPlus": 6978,
      "Ġresolution": 6979,
      "Ġestimated": 6980,
      "Ġdiabetes": 6981,
      "Ġremarkable": 6982,
      "rient": 6983,
      "Ġwave": 6984,
      "Ġhouses": 6985,
      "Ġly": 6986,
      "Ġ72": 6987,
      "Ġgenetic": 6988,
      "Ġinterior": 6989,
      "dens": 6990,
      "Ġtreatments": 6991,
      "Ġunable": 6992,
      "ĠValley": 6993,
      "Ġaesth": 6994,
      "Ġpresentation": 6995,
      "Ġfundamental": 6996,
      "nually": 6997,
      "Ġorigin": 6998,
      "Ġreasonable": 6999,
      "Ġwalls": 7000,
      "Ġiron": 7001,
      "teen": 7002,
      "Ġindicate": 7003,
      "Ġmatters": 7004,
      "Ġeg": 7005,
      "Ġobtained": 7006,
      "Ġyo": 7007,
      "whel": 7008,
      "Ġadminist": 7009,
      "hreat": 7010,
      "Ġbear": 7011,
      "Ġthreat": 7012,
      "taining": 7013,
      "tible": 7014,
      "Ġpossibility": 7015,
      "Ġfacts": 7016,
      "lant": 7017,
      "ĠSecret": 7018,
      "ĠAsia": 7019,
      "ĠProduct": 7020,
      "Ġ-si": 7021,
      "soul": 7022,
      "Ġbreast": 7023,
      "Ġexpenses": 7024,
      "ĠConf": 7025,
      "ĠLeague": 7026,
      "ĠQuee": 7027,
      "press": 7028,
      "cific": 7029,
      "Ġsuperior": 7030,
      "Ġphenome": 7031,
      "esh": 7032,
      "Ġnetworks": 7033,
      "ĠWi": 7034,
      "ĠNF": 7035,
      "Ġnoise": 7036,
      "ĠCall": 7037,
      "ĠAustralian": 7038,
      "ĠEaster": 7039,
      "loyment": 7040,
      "Ġconduct": 7041,
      "Ġpills": 7042,
      "Ġusual": 7043,
      "ĠHead": 7044,
      "Ġkm": 7045,
      "Ġattitude": 7046,
      "sen": 7047,
      "itar": 7048,
      "Ġgrown": 7049,
      "ĠFrank": 7050,
      "ĠChange": 7051,
      "resses": 7052,
      "Ġauthority": 7053,
      "Ġinspiration": 7054,
      "ĠYet": 7055,
      "Ġintegrated": 7056,
      "Ġdefa": 7057,
      "tories": 7058,
      "Ġwithdra": 7059,
      "rich": 7060,
      "Ġyellow": 7061,
      "Ġdomestic": 7062,
      "OP": 7063,
      "Ġcolour": 7064,
      "ĠCP": 7065,
      "Ġcandidates": 7066,
      "Ġoperate": 7067,
      "iners": 7068,
      "Ġspin": 7069,
      "ĠWilliam": 7070,
      "rapy": 7071,
      "isk": 7072,
      "Ġpray": 7073,
      "ĠCy": 7074,
      "ĠEqu": 7075,
      "CH": 7076,
      "Ġfrust": 7077,
      "ĠPop": 7078,
      "Ġdestination": 7079,
      "ãĤ": 7080,
      "how": 7081,
      "Ġsoul": 7082,
      "Ġconfirm": 7083,
      "ator": 7084,
      "een": 7085,
      "Ġfaced": 7086,
      "ĠEnvironment": 7087,
      "burg": 7088,
      "ĠMeanwhile": 7089,
      "tels": 7090,
      "ĠStart": 7091,
      "roduction": 7092,
      "inations": 7093,
      "Ġbre": 7094,
      "Ġsavings": 7095,
      "Ġgro": 7096,
      "nion": 7097,
      "Ġnegot": 7098,
      "ĠGir": 7099,
      "ĠTim": 7100,
      "Ġ191": 7101,
      "Ġcharacteristics": 7102,
      "ada": 7103,
      "Ġconflict": 7104,
      "ĠNE": 7105,
      "Ġawesome": 7106,
      "inly": 7107,
      "ĠContact": 7108,
      "Ġgrad": 7109,
      "ĠOp": 7110,
      "ĠCommittee": 7111,
      "Ġapproved": 7112,
      "Ġ57": 7113,
      "Ġbutter": 7114,
      "cing": 7115,
      "Ġdebate": 7116,
      "Ġrd": 7117,
      "ĠThree": 7118,
      "Ġroll": 7119,
      "Ġisol": 7120,
      "Ġadventure": 7121,
      "Ġnavigate": 7122,
      "Ġ59": 7123,
      "Ġplate": 7124,
      "Ġcompens": 7125,
      "Ġriver": 7126,
      "Ġpercentage": 7127,
      "Ġdisap": 7128,
      "Ġroute": 7129,
      "ride": 7130,
      "Ġaffil": 7131,
      "ĠCS": 7132,
      "ĠCBD": 7133,
      "ĠPhys": 7134,
      "mantic": 7135,
      "Ġtransl": 7136,
      "Ġelig": 7137,
      "Ġliterature": 7138,
      "Ġfilter": 7139,
      "Ġmodu": 7140,
      "ĠCamp": 7141,
      "vents": 7142,
      "Ġspark": 7143,
      "Ġarms": 7144,
      "ĠTour": 7145,
      "Ġprove": 7146,
      "ĠDisco": 7147,
      "rr": 7148,
      "ounder": 7149,
      "Ġenjoyable": 7150,
      "Ġdental": 7151,
      "Ġclassroom": 7152,
      "Ġauthentic": 7153,
      "Ġjustice": 7154,
      "ĠGue": 7155,
      "Ġcultiv": 7156,
      "Ġlistening": 7157,
      "Ġtickets": 7158,
      "Ġimagine": 7159,
      "ĠFinally": 7160,
      "Ġuncert": 7161,
      "Ġcollective": 7162,
      "Ġreputation": 7163,
      "ĠThomas": 7164,
      "Ġmanual": 7165,
      "Ġ-mo": 7166,
      "mative": 7167,
      "Ġcapture": 7168,
      "Ġlovely": 7169,
      "ĠiPhone": 7170,
      "nton": 7171,
      "ĠName": 7172,
      "ĠRespo": 7173,
      "iations": 7174,
      "ĠJim": 7175,
      "ĠLouis": 7176,
      "ĠDu": 7177,
      "Ġ120": 7178,
      "Ġwet": 7179,
      "Ġlosing": 7180,
      "ĠAR": 7181,
      "ĠDigital": 7182,
      "umin": 7183,
      "Ġfell": 7184,
      "IF": 7185,
      "Ġincreasingly": 7186,
      "gant": 7187,
      "Ġrecipe": 7188,
      "ĠYOU": 7189,
      "Ġretail": 7190,
      "Ġexcessive": 7191,
      "ĠÎ": 7192,
      "Ġapo": 7193,
      "Ġpurch": 7194,
      "ĠHen": 7195,
      "Ġimpe": 7196,
      "Ġinvestigation": 7197,
      "LA": 7198,
      "ĠFull": 7199,
      "Ġsurprise": 7200,
      "ĠSP": 7201,
      "Ġdumpster": 7202,
      "zes": 7203,
      "Ġroc": 7204,
      "Ġinner": 7205,
      "Ġstrengthe": 7206,
      "Ġboys": 7207,
      "ah": 7208,
      "Ġamounts": 7209,
      "Ġmillions": 7210,
      "sits": 7211,
      "ĠDate": 7212,
      "ĠBir": 7213,
      "Ġbelo": 7214,
      "Ġreplacement": 7215,
      "Ġdates": 7216,
      "ĠVery": 7217,
      "ĠSafety": 7218,
      "Ġille": 7219,
      "Ġspon": 7220,
      "Ġbeat": 7221,
      "Ġcompli": 7222,
      "Ġprotected": 7223,
      "Ġdefinition": 7224,
      "dest": 7225,
      "Ġhidden": 7226,
      "org": 7227,
      "ĠTom": 7228,
      "Ġagencies": 7229,
      "Ġpurchasing": 7230,
      "Ġrecover": 7231,
      "Ġalgorith": 7232,
      "thon": 7233,
      "Ġtempl": 7234,
      "Ġstopped": 7235,
      "Ġwheel": 7236,
      "ĠWatch": 7237,
      "reativity": 7238,
      "ĠVol": 7239,
      "ĠPrice": 7240,
      "ĠSimilar": 7241,
      "ĠMexico": 7242,
      "fin": 7243,
      "Ġscheduled": 7244,
      "Ġsubjects": 7245,
      "Ġinteraction": 7246,
      "forcement": 7247,
      "ĠRemo": 7248,
      "working": 7249,
      "Ġund": 7250,
      "ĠCode": 7251,
      "Ġbrowser": 7252,
      "Ġimplementation": 7253,
      "Ġrelief": 7254,
      "Ġfund": 7255,
      "ĠKen": 7256,
      "Ġlicense": 7257,
      "Ġchapter": 7258,
      "Ġtemperatures": 7259,
      "Ġrear": 7260,
      "ĠFar": 7261,
      "Ġ58": 7262,
      "sides": 7263,
      "ĠSoft": 7264,
      "xic": 7265,
      "rone": 7266,
      "Ġenhanced": 7267,
      "ivo": 7268,
      "Ġdepende": 7269,
      "xpected": 7270,
      "ĠJan": 7271,
      "Ġdomain": 7272,
      "asp": 7273,
      "ĠManager": 7274,
      "cript": 7275,
      "tood": 7276,
      "Ġdama": 7277,
      "ĠMetho": 7278,
      "hri": 7279,
      "Ġmixed": 7280,
      "Ġfunctionality": 7281,
      "ĠCanadian": 7282,
      "Ġtested": 7283,
      "stagram": 7284,
      "Ġcandidate": 7285,
      "ĠMass": 7286,
      "ĠStrate": 7287,
      "Ġ-per": 7288,
      "Ġ-H": 7289,
      "nesses": 7290,
      "Ġmail": 7291,
      "igra": 7292,
      "tholic": 7293,
      "ĠAmong": 7294,
      "Ġkeeps": 7295,
      "Ġflavor": 7296,
      "ĠSometimes": 7297,
      "ĠDeta": 7298,
      "ĠImage": 7299,
      "Ġintroduction": 7300,
      "Ġcollect": 7301,
      "ulted": 7302,
      "Ġtaxe": 7303,
      "Ġclosely": 7304,
      "Ġtaxes": 7305,
      "Ġclothing": 7306,
      "Ġhardware": 7307,
      "ĠWeek": 7308,
      "ĠBible": 7309,
      "ĠMob": 7310,
      "under": 7311,
      "ĠJewish": 7312,
      "ien": 7313,
      "Ġvirus": 7314,
      "Ġafternoon": 7315,
      "Ġ...Ċ": 7316,
      "ĠUnlike": 7317,
      "Ġresponses": 7318,
      "Ġlighting": 7319,
      "Ġtalent": 7320,
      "Ġneighborhood": 7321,
      "Ġ800": 7322,
      "flow": 7323,
      "Ġmeticul": 7324,
      "Ġmurder": 7325,
      "Ġdeale": 7326,
      "Ġrecognition": 7327,
      "ette": 7328,
      "Ġpainting": 7329,
      "Ġsubsequent": 7330,
      "ĠON": 7331,
      "Ġinsight": 7332,
      "ĠHD": 7333,
      "Ġmitig": 7334,
      "Ġapproaches": 7335,
      "Ġenviron": 7336,
      "Ġdeeply": 7337,
      "Ġhandling": 7338,
      "nab": 7339,
      "ingly": 7340,
      "icians": 7341,
      "Ġflexible": 7342,
      "Ġsomewhat": 7343,
      "Ġsensitive": 7344,
      "nr": 7345,
      "Ġ?\"ĊĊ": 7346,
      "ĠLos": 7347,
      "Ġtor": 7348,
      "Ġagreed": 7349,
      "Ġcm": 7350,
      "Ġsupplies": 7351,
      "Ġcock": 7352,
      "Ġ-and": 7353,
      "Ġcasual": 7354,
      "Ġlisting": 7355,
      "iche": 7356,
      "Ġpharm": 7357,
      "Ġsupplement": 7358,
      "ishe": 7359,
      "Ġboat": 7360,
      "ĠMen": 7361,
      "Ġenvironments": 7362,
      "Ġbrown": 7363,
      "ĠSpace": 7364,
      "Ġintense": 7365,
      "Ġrecommendations": 7366,
      "ĠTimes": 7367,
      "Ġdestroy": 7368,
      "ĠMinister": 7369,
      "abol": 7370,
      "Ġbelieves": 7371,
      "In": 7372,
      "sick": 7373,
      "Ġkick": 7374,
      "Ġvacc": 7375,
      "Ġoverwhel": 7376,
      "licated": 7377,
      "ĠRemember": 7378,
      "Ġplane": 7379,
      "list": 7380,
      "umble": 7381,
      "Ġtelling": 7382,
      "east": 7383,
      "ĠResour": 7384,
      "ĠCommission": 7385,
      "Ġinteractions": 7386,
      "Ġmono": 7387,
      "Ġconfirmed": 7388,
      "Ġshel": 7389,
      "ĠWH": 7390,
      "CE": 7391,
      "Ġcreates": 7392,
      "ĠJose": 7393,
      "Ġ-level": 7394,
      "Ġasp": 7395,
      "ĠMike": 7396,
      "idth": 7397,
      "ĠCommon": 7398,
      "Ġmagic": 7399,
      "Ġexistence": 7400,
      "Ġlegs": 7401,
      "Ġcommunicate": 7402,
      "ĠWay": 7403,
      "Ġregional": 7404,
      "Ġpersonally": 7405,
      "Ġprogramming": 7406,
      "inating": 7407,
      "Ġdepression": 7408,
      "Ġblow": 7409,
      "Ġkit": 7410,
      "Ġdeeper": 7411,
      "Ġdemonstrated": 7412,
      "ĠHosp": 7413,
      "izer": 7414,
      "ĠTable": 7415,
      "Ġsignificance": 7416,
      "Ġhosting": 7417,
      "ĠDif": 7418,
      "Ġtack": 7419,
      "Ġbirthday": 7420,
      "Ġauthors": 7421,
      "Ġformal": 7422,
      "ĠArab": 7423,
      "ĠTha": 7424,
      "wal": 7425,
      "ĠCA": 7426,
      "II": 7427,
      "Ġsmile": 7428,
      "Ġjudge": 7429,
      "Ġimpossible": 7430,
      "holders": 7431,
      "Ġfrequency": 7432,
      "Ġsick": 7433,
      "ĠRes": 7434,
      "yan": 7435,
      "ieties": 7436,
      "ĠDen": 7437,
      "anta": 7438,
      "folio": 7439,
      "Ġcomposition": 7440,
      "Ġmissed": 7441,
      "words": 7442,
      "Ġrepresents": 7443,
      "ĠSupp": 7444,
      "llect": 7445,
      "ĠBrown": 7446,
      "ĠLan": 7447,
      "nald": 7448,
      "ĠHelp": 7449,
      "Ġplot": 7450,
      "Ġexecutive": 7451,
      "Ġpoker": 7452,
      "road": 7453,
      "Ġregistered": 7454,
      "Ġnaturally": 7455,
      "Ġheav": 7456,
      "ĠGames": 7457,
      "Ġmainly": 7458,
      "oral": 7459,
      "Ġmath": 7460,
      "Ġabilities": 7461,
      "Ġobjective": 7462,
      "Ġcollea": 7463,
      "Ġclothes": 7464,
      "Ġvent": 7465,
      "Ġaccomplish": 7466,
      "Ġoblig": 7467,
      "Ġfolks": 7468,
      "Ġtruck": 7469,
      "Ġpassing": 7470,
      "Ġcrew": 7471,
      "Ġarts": 7472,
      "Ġfocuses": 7473,
      "Ġchicken": 7474,
      "Ġresu": 7475,
      "Ġ600": 7476,
      "Ġarrival": 7477,
      "Ġalongside": 7478,
      "Ġrein": 7479,
      "Ġhappening": 7480,
      "Ġadds": 7481,
      "Ġshower": 7482,
      "Ġflexibility": 7483,
      "ĠCentr": 7484,
      "logist": 7485,
      "Ġorganized": 7486,
      "Ġlanguages": 7487,
      "Ġchances": 7488,
      "ĠComple": 7489,
      "town": 7490,
      "cr": 7491,
      "poration": 7492,
      "Ġoutcome": 7493,
      "Ġenhancing": 7494,
      "ĠPS": 7495,
      "resh": 7496,
      "emes": 7497,
      "bd": 7498,
      "Ġ88": 7499,
      "Ġimmune": 7500,
      "ĠAtla": 7501,
      "TC": 7502,
      "Ġissued": 7503,
      "Ġbottle": 7504,
      "riculum": 7505,
      "ique": 7506,
      "Ġnuclear": 7507,
      "ĠItalian": 7508,
      "Ġcoope": 7509,
      "Ġfalse": 7510,
      "Ġalign": 7511,
      "Ġoutstanding": 7512,
      "ioner": 7513,
      "ĠPub": 7514,
      "ĠExa": 7515,
      "Ġentreprene": 7516,
      "Ġproof": 7517,
      "asure": 7518,
      "ĠBuilding": 7519,
      "Ġsuggesting": 7520,
      "Ġzero": 7521,
      "Ġfeatured": 7522,
      "ĠJob": 7523,
      "ĠSEO": 7524,
      "Ġpreparation": 7525,
      "uming": 7526,
      "Ġ190": 7527,
      "ĠHaw": 7528,
      "ools": 7529,
      "ĠAlter": 7530,
      "Ġregula": 7531,
      "Ġratio": 7532,
      "Ġaccesso": 7533,
      "Ġexpans": 7534,
      "Ġkno": 7535,
      "Ġpoc": 7536,
      "ĠYouT": 7537,
      "Ġ;ĊĊ": 7538,
      "Ġsilver": 7539,
      "Ġsearching": 7540,
      "ulf": 7541,
      "denly": 7542,
      "Ġstretch": 7543,
      "Ġsynth": 7544,
      "ĠPrese": 7545,
      "Ġstudio": 7546,
      "Ġreader": 7547,
      "Ġadm": 7548,
      "Ġvisible": 7549,
      "Ġacts": 7550,
      "ĠBenefits": 7551,
      "Ġdelicious": 7552,
      "ĠJava": 7553,
      "Ġgained": 7554,
      "Ġmountain": 7555,
      "nute": 7556,
      "Ġfasci": 7557,
      "Ġtiny": 7558,
      "Ġbanks": 7559,
      "ĠGene": 7560,
      "Ġofficer": 7561,
      "Ġlimits": 7562,
      "Ġconscious": 7563,
      "ruits": 7564,
      "Ġletters": 7565,
      "Ġpun": 7566,
      "iment": 7567,
      "Ġdealing": 7568,
      "Ġslowly": 7569,
      "Ġaccele": 7570,
      "Ġjew": 7571,
      "ĠLocal": 7572,
      "vailable": 7573,
      "Ġ62": 7574,
      "loa": 7575,
      "owder": 7576,
      "Ġreporting": 7577,
      "ĠCred": 7578,
      "Ġresidential": 7579,
      "nre": 7580,
      "morrow": 7581,
      "ĠSS": 7582,
      "Ġthri": 7583,
      "Ġpace": 7584,
      "Ġlad": 7585,
      "ĠDownload": 7586,
      "Ġexplan": 7587,
      "Ġrevolution": 7588,
      "ĠRoman": 7589,
      "ĠNetwork": 7590,
      "Ġdevelopers": 7591,
      "Ġmedication": 7592,
      "aret": 7593,
      "Ġou": 7594,
      "Ġ-E": 7595,
      "Ġcharged": 7596,
      "Ġema": 7597,
      "sof": 7598,
      "ĠReport": 7599,
      "Ġremoval": 7600,
      "Ġlock": 7601,
      "iro": 7602,
      "Ġintention": 7603,
      "Ġdiversity": 7604,
      "Ġpersonality": 7605,
      "Ġindex": 7606,
      "Ġoccurred": 7607,
      "uling": 7608,
      "ĠUpd": 7609,
      "ĠGiven": 7610,
      "Ġindustries": 7611,
      "ĠPic": 7612,
      "ĠCentre": 7613,
      "ĠRichard": 7614,
      "ĠEv": 7615,
      "ĠFollowing": 7616,
      "Ġintegration": 7617,
      "ĠCharles": 7618,
      "Ġbirds": 7619,
      "gnit": 7620,
      "Ġhate": 7621,
      "Ġcomparison": 7622,
      "Ġvacation": 7623,
      "Ġnormally": 7624,
      "Ġgreatly": 7625,
      "Ġrank": 7626,
      "gged": 7627,
      "Ġcalo": 7628,
      "Ġbon": 7629,
      "ĠConsider": 7630,
      "Ġscholar": 7631,
      "ĠSqu": 7632,
      "Ġguard": 7633,
      "Ġattached": 7634,
      "medy": 7635,
      "irement": 7636,
      "rat": 7637,
      "ĠExplore": 7638,
      "ĠBob": 7639,
      "ĠInstagram": 7640,
      "Ġdrinking": 7641,
      "Ġstake": 7642,
      "Ġchief": 7643,
      "Ġdrawn": 7644,
      "ĠJoe": 7645,
      "Ġinteractive": 7646,
      "Ġfostering": 7647,
      "Ġperiods": 7648,
      "Ġmom": 7649,
      "Ġincredible": 7650,
      "minated": 7651,
      "akers": 7652,
      "ĠLittle": 7653,
      "ĠPolice": 7654,
      "Ġves": 7655,
      "Ġ-G": 7656,
      "Ġbread": 7657,
      "Ġinduc": 7658,
      "sought": 7659,
      "Ġpapers": 7660,
      "wing": 7661,
      "Ġsolve": 7662,
      "ĠJournal": 7663,
      "Ġstable": 7664,
      "stament": 7665,
      "Ġagents": 7666,
      "Ġ~": 7667,
      "Ġdu": 7668,
      "Ġcompete": 7669,
      "ĠMP": 7670,
      "ĠBuy": 7671,
      "ume": 7672,
      "ĠTen": 7673,
      "ĠCR": 7674,
      "Ġcoll": 7675,
      "Ġunexpected": 7676,
      "ĠSteve": 7677,
      "ĠFl": 7678,
      "ĠFederal": 7679,
      "Ġgentle": 7680,
      "Ġpricing": 7681,
      "issa": 7682,
      "Ġmuseum": 7683,
      "Ġdefault": 7684,
      "ĠPet": 7685,
      "itis": 7686,
      "Ġmassage": 7687,
      "ĠDNA": 7688,
      "Ġsought": 7689,
      "ĠDie": 7690,
      "ĠSU": 7691,
      "ĠWood": 7692,
      "Ġ61": 7693,
      "Ġgenerated": 7694,
      "Ġvie": 7695,
      "Ġtrained": 7696,
      ".T": 7697,
      "Ġ.T": 7698,
      "Ġexploration": 7699,
      "ĠParis": 7700,
      "Ġsof": 7701,
      "Ġconsideration": 7702,
      "Ġborder": 7703,
      "Ġtooth": 7704,
      "Ġacting": 7705,
      "Ġbasket": 7706,
      "romo": 7707,
      "Ġbone": 7708,
      ".D": 7709,
      "Ġ.D": 7710,
      "kee": 7711,
      "ãĥ": 7712,
      "lemented": 7713,
      "ĠTreat": 7714,
      "sive": 7715,
      "Ġtim": 7716,
      "Ġpregnancy": 7717,
      "Ġmac": 7718,
      "Ġcu": 7719,
      "gypt": 7720,
      "ĠVirginia": 7721,
      "Ġranging": 7722,
      "ĠForm": 7723,
      "Ġdecrease": 7724,
      "Ġterror": 7725,
      "Ġhospit": 7726,
      "Ġbasically": 7727,
      "Ġluxury": 7728,
      "Ġcheese": 7729,
      "quis": 7730,
      "neath": 7731,
      "Ġreligion": 7732,
      "eer": 7733,
      "sin": 7734,
      "Ġoral": 7735,
      "Ġutilize": 7736,
      "Ġstaying": 7737,
      "Ġ-mi": 7738,
      "ĠFinancial": 7739,
      "Ġavailability": 7740,
      "Ġaged": 7741,
      "Ġcreativity": 7742,
      "ĠMeet": 7743,
      "Ġunus": 7744,
      "Ġconcrete": 7745,
      "Ġspoke": 7746,
      "Ġtissue": 7747,
      "Ġrepeated": 7748,
      "Ġremained": 7749,
      "ĠUnfortunately": 7750,
      "Ġfighting": 7751,
      "Ġlabe": 7752,
      "ificial": 7753,
      "Ġmeetings": 7754,
      "ĠRegular": 7755,
      "Ġ66": 7756,
      "ĠCatholic": 7757,
      "Ġearned": 7758,
      "Ġextent": 7759,
      "Ġauthorities": 7760,
      "Ġperforming": 7761,
      "Ġchronic": 7762,
      "Ġsplit": 7763,
      "Ġstored": 7764,
      "Ġrecyc": 7765,
      "Ġmemories": 7766,
      "Ġweekly": 7767,
      "ĠRece": 7768,
      "ĠChief": 7769,
      "Ġforth": 7770,
      "ĠYouTube": 7771,
      "Ġaccompanied": 7772,
      "gnitive": 7773,
      "ĠPrem": 7774,
      "ĠBeing": 7775,
      "Ġhealing": 7776,
      "lla": 7777,
      "ĠCustomer": 7778,
      "Ġstages": 7779,
      "Ġpersonalized": 7780,
      "enty": 7781,
      "ida": 7782,
      "BS": 7783,
      "cy": 7784,
      "ĠPrep": 7785,
      "ican": 7786,
      "rsey": 7787,
      "Ġglad": 7788,
      "ĠMemo": 7789,
      "Ġeggs": 7790,
      "Ġaller": 7791,
      "Ġtransactions": 7792,
      "ngest": 7793,
      "ĠAcademy": 7794,
      "Ġvegetables": 7795,
      "Ġhurt": 7796,
      "Ġdistingu": 7797,
      "ĠSever": 7798,
      "Ġtank": 7799,
      "ĠEr": 7800,
      "rist": 7801,
      "ĠArts": 7802,
      "riers": 7803,
      "bell": 7804,
      "acket": 7805,
      "ĠLink": 7806,
      "ĠTry": 7807,
      "Ġexpansion": 7808,
      "Ġbeer": 7809,
      "ratory": 7810,
      "ĠEU": 7811,
      "CT": 7812,
      "ĠLibrary": 7813,
      "Ġworst": 7814,
      "ĠBan": 7815,
      "Ġwriters": 7816,
      "ĠDetails": 7817,
      "ĠAsian": 7818,
      "stract": 7819,
      "Ġtone": 7820,
      "Ġrelative": 7821,
      "ĠType": 7822,
      "Ġcodes": 7823,
      "Ġencomp": 7824,
      "Ġversions": 7825,
      "Ġlesson": 7826,
      "Ġsamples": 7827,
      "Ġwarrant": 7828,
      "Ġskilled": 7829,
      "Ġgrew": 7830,
      "Ġdiscount": 7831,
      "tches": 7832,
      "ĠYoung": 7833,
      "Ġencouraged": 7834,
      "ML": 7835,
      "Ġvoc": 7836,
      "oxy": 7837,
      "lled": 7838,
      "ĠPrince": 7839,
      "Ġchocolate": 7840,
      "Ġ>>": 7841,
      ".The": 7842,
      "Ġ.The": 7843,
      "Ġexercises": 7844,
      "ician": 7845,
      "ĠMarketing": 7846,
      "Ġimpacts": 7847,
      "Ġchannels": 7848,
      "pen": 7849,
      "Ġyesterday": 7850,
      "Ġamenities": 7851,
      "Ġowned": 7852,
      "MA": 7853,
      "istant": 7854,
      "Ġdust": 7855,
      "Ġcontaining": 7856,
      "ĠWild": 7857,
      "Ġbacteria": 7858,
      "rado": 7859,
      "Ġobst": 7860,
      "Ġlargely": 7861,
      "Ġslee": 7862,
      "ĠTraining": 7863,
      "ict": 7864,
      "Ġpin": 7865,
      "Ġstability": 7866,
      "ivalent": 7867,
      "ĠAlterna": 7868,
      "Ġfishing": 7869,
      "Ġelectricity": 7870,
      "Ġacknowledge": 7871,
      "Ġtherap": 7872,
      "ĠGrow": 7873,
      "Ġproducing": 7874,
      "Ġcollected": 7875,
      "Ġabund": 7876,
      "Ġstatements": 7877,
      "Ġ-en": 7878,
      "Ġcommittee": 7879,
      "Ġvictory": 7880,
      "ĠSara": 7881,
      "Ġhyper": 7882,
      "Ġpipe": 7883,
      "sth": 7884,
      "tto": 7885,
      "Ġdepen": 7886,
      "Ġduration": 7887,
      "ĠDisc": 7888,
      "Ġframework": 7889,
      "Ġdepend": 7890,
      "ĠSpring": 7891,
      "Ġmatche": 7892,
      "ĠWall": 7893,
      "imal": 7894,
      "ĠHope": 7895,
      "Ġhel": 7896,
      "nability": 7897,
      "Ġsight": 7898,
      "Ġsurprised": 7899,
      "ĠLee": 7900,
      "Ġbare": 7901,
      "TA": 7902,
      "Ġexposed": 7903,
      "gressive": 7904,
      "Ġmatches": 7905,
      "Ġbalanced": 7906,
      "Ġoverloo": 7907,
      "Ġconsists": 7908,
      "ĠSeries": 7909,
      "Ġraw": 7910,
      "nan": 7911,
      "Ġoriginally": 7912,
      "ĠFA": 7913,
      "Ġpasse": 7914,
      "Ġcelebrate": 7915,
      "Ġestablishment": 7916,
      "Ġcareful": 7917,
      "ĠCop": 7918,
      "Ġdivid": 7919,
      "Ġgrab": 7920,
      "Ġdemands": 7921,
      "ĠRoyal": 7922,
      "Ġmoves": 7923,
      "Ġcatal": 7924,
      "Ġdefen": 7925,
      "Ġende": 7926,
      "Ġhistoric": 7927,
      "Ġsuggestions": 7928,
      "Ġhook": 7929,
      "Ġbelong": 7930,
      "scribe": 7931,
      "Ġfrequent": 7932,
      "ĠMuslim": 7933,
      "ii": 7934,
      "Ġhyp": 7935,
      "ĠCarolina": 7936,
      "Ġcounty": 7937,
      "Ġale": 7938,
      "Ġlabel": 7939,
      "Ġigno": 7940,
      "jection": 7941,
      "lind": 7942,
      "MP": 7943,
      "ĠSports": 7944,
      "Ġconse": 7945,
      "Ġpromise": 7946,
      "bra": 7947,
      "tech": 7948,
      "Ġfairly": 7949,
      "leep": 7950,
      "Ġargue": 7951,
      "Ġdefend": 7952,
      "ĠChalle": 7953,
      "Ġclic": 7954,
      "Ġmerc": 7955,
      "Ġ-out": 7956,
      "Ġje": 7957,
      "ivers": 7958,
      "allery": 7959,
      "Ġcombat": 7960,
      "tar": 7961,
      "alan": 7962,
      "Ġacquire": 7963,
      "alendar": 7964,
      "Ġgay": 7965,
      "Ġneut": 7966,
      "ĠGeorg": 7967,
      "ĠAward": 7968,
      "ĠPropert": 7969,
      "Ġopposite": 7970,
      "ĠImpro": 7971,
      "ĠEgypt": 7972,
      "Ġrealized": 7973,
      "ĠPas": 7974,
      "pper": 7975,
      "Ġtact": 7976,
      "ever": 7977,
      "ĠâĤ": 7978,
      "Ġhesit": 7979,
      "Ġtracking": 7980,
      "Ġpicked": 7981,
      "ĠBab": 7982,
      "ĠCir": 7983,
      "Ġpolitics": 7984,
      "mina": 7985,
      "ĠEa": 7986,
      "Ġrequiring": 7987,
      "uma": 7988,
      "Ġappointment": 7989,
      "tered": 7990,
      "Ġ91": 7991,
      "ctic": 7992,
      "ĠCurrently": 7993,
      "ĠMach": 7994,
      "forward": 7995,
      "Ġofficers": 7996,
      ".[": 7997,
      "ĠDar": 7998,
      "Ġseed": 7999,
      "AY": 8000,
      "ĠStay": 8001,
      "Ġsheet": 8002,
      "ATION": 8003,
      "Ġmembership": 8004,
      "ĠHistor": 8005,
      "ĠAngeles": 8006,
      "Ġcorrectly": 8007,
      "Ġreaching": 8008,
      "nea": 8009,
      "ĠIdent": 8010,
      "Ġquote": 8011,
      "Ġunderstood": 8012,
      "Ġintent": 8013,
      "Ġinitiative": 8014,
      "stand": 8015,
      "Ġflash": 8016,
      "Ġevaluation": 8017,
      "ĠChoose": 8018,
      "iece": 8019,
      "ĠStat": 8020,
      "Ġrely": 8021,
      "ĠProfessional": 8022,
      "Ġreplaced": 8023,
      "airs": 8024,
      "phis": 8025,
      "Ġerrors": 8026,
      "ares": 8027,
      "gend": 8028,
      "Ġseriously": 8029,
      "Ġapplying": 8030,
      "Ġloyal": 8031,
      "Ġcategories": 8032,
      "Ġassume": 8033,
      "ntown": 8034,
      "ĠCross": 8035,
      "bil": 8036,
      "Ġpreventing": 8037,
      "Ġobjectives": 8038,
      "Ġ()": 8039,
      "ĠPolicy": 8040,
      "aming": 8041,
      "Ġgod": 8042,
      "Ġpleasant": 8043,
      "Ġgrass": 8044,
      "Ġbond": 8045,
      "Ġchampion": 8046,
      "Ġ-off": 8047,
      "ificate": 8048,
      "Ġsin": 8049,
      "etime": 8050,
      "Ġhall": 8051,
      "Ġ(\"": 8052,
      "Ġmuscles": 8053,
      "Ġ180": 8054,
      "Ġrapidly": 8055,
      "Ġhabits": 8056,
      "Ġintric": 8057,
      "nguage": 8058,
      "Ġentered": 8059,
      "Ġzone": 8060,
      "gie": 8061,
      "ĠES": 8062,
      "Ġfaces": 8063,
      "Ġlie": 8064,
      "Ġoxy": 8065,
      "ĠHas": 8066,
      "Ġantib": 8067,
      "Ġguitar": 8068,
      "Ġdreams": 8069,
      "Ġcontinuous": 8070,
      "Ġpermanent": 8071,
      "Ġpenal": 8072,
      "Ġbroa": 8073,
      "Ġster": 8074,
      "nuses": 8075,
      "Ġnecessarily": 8076,
      "ĠNeed": 8077,
      "Ġcontrolled": 8078,
      "ĠSpirit": 8079,
      "Ġ\"It": 8080,
      "ĠVar": 8081,
      "ĠExt": 8082,
      "Ġsuffering": 8083,
      "Ġ63": 8084,
      "Ġmining": 8085,
      "rce": 8086,
      "ĠMartin": 8087,
      "Ġaddressing": 8088,
      "Ġdispo": 8089,
      "Ġenjoying": 8090,
      "ĠReviews": 8091,
      "ĠEle": 8092,
      "Ġdip": 8093,
      "Ġdev": 8094,
      "Ġswimming": 8095,
      "ogue": 8096,
      "Ġbird": 8097,
      "har": 8098,
      "Ġaccur": 8099,
      "hemes": 8100,
      "Ġdemonstrate": 8101,
      "gical": 8102,
      "Ġthemes": 8103,
      "Ġ-W": 8104,
      "Ġ].": 8105,
      "Ġknee": 8106,
      "ifest": 8107,
      "Ġ\":": 8108,
      "Ġshock": 8109,
      "Ġdiscussions": 8110,
      "van": 8111,
      "pla": 8112,
      "ĠWithout": 8113,
      "bi": 8114,
      "ĠSex": 8115,
      "lymp": 8116,
      "Ġhighlights": 8117,
      "Ġempty": 8118,
      "Ġsentence": 8119,
      "Ġ.[": 8120,
      "ĠLooking": 8121,
      "ĠConce": 8122,
      "Ġultimate": 8123,
      "iary": 8124,
      "ruption": 8125,
      "Ġ77": 8126,
      "Ġseeds": 8127,
      "arently": 8128,
      "nium": 8129,
      "vit": 8130,
      "Ġcomprom": 8131,
      "Ġrespectively": 8132,
      "Ġportfolio": 8133,
      "Ġlowe": 8134,
      "Ġpleased": 8135,
      "acle": 8136,
      "ĠIm": 8137,
      "ĠAgain": 8138,
      "ĠHard": 8139,
      "ĠCost": 8140,
      "ĠâĢĭ": 8141,
      "ĠExec": 8142,
      "Ġconventional": 8143,
      "aya": 8144,
      "Ġtransaction": 8145,
      "sion": 8146,
      "Ġpopularity": 8147,
      "roc": 8148,
      "Ġarchitecture": 8149,
      "vir": 8150,
      "Ġhaz": 8151,
      "Ġdism": 8152,
      "Ġ.)ĊĊ": 8153,
      "ĠJohnson": 8154,
      "fold": 8155,
      "ĠLin": 8156,
      "ties": 8157,
      "Ġpod": 8158,
      "ĠImpact": 8159,
      "Ġshooting": 8160,
      "Ġscar": 8161,
      "CS": 8162,
      "ĠOil": 8163,
      "Ġloves": 8164,
      "Ġcriteria": 8165,
      "Ġaccuracy": 8166,
      "!!": 8167,
      "ĠTri": 8168,
      "Ġmaintained": 8169,
      "Ġformation": 8170,
      "Ġcong": 8171,
      "ĠAdva": 8172,
      "iden": 8173,
      "Ġfinance": 8174,
      "Ġhole": 8175,
      "ĠKar": 8176,
      "Ġheating": 8177,
      "Ġversatile": 8178,
      "Ġexperiencing": 8179,
      "ĠCup": 8180,
      "Ġillness": 8181,
      "Ġcenters": 8182,
      "Ġdramatic": 8183,
      "ĠHand": 8184,
      "ĠStore": 8185,
      "Ġwest": 8186,
      "ĠProcess": 8187,
      "allet": 8188,
      "Ġincredibly": 8189,
      "Ġgolf": 8190,
      "Ġpounds": 8191,
      "Ġocean": 8192,
      "Ġ);": 8193,
      "ĠNight": 8194,
      "Ġactively": 8195,
      "vement": 8196,
      "Ġeffectiveness": 8197,
      "Ġexplains": 8198,
      "uter": 8199,
      "Ġnarrow": 8200,
      "Ġnewly": 8201,
      "Ġaccum": 8202,
      "Ġintellect": 8203,
      "front": 8204,
      "ĠWould": 8205,
      "Ġselecting": 8206,
      "Ġpad": 8207,
      "Ġcampus": 8208,
      "Ġprofound": 8209,
      "Ġrail": 8210,
      "rity": 8211,
      "vera": 8212,
      "Ġmanip": 8213,
      "Ġcrowd": 8214,
      "utch": 8215,
      "Ġnewspa": 8216,
      "ndro": 8217,
      "Ġaddresses": 8218,
      "Ġdecent": 8219,
      "formance": 8220,
      "ĠPy": 8221,
      "ĠEns": 8222,
      "lywood": 8223,
      "Ġequally": 8224,
      "ĠDV": 8225,
      "Ġsigna": 8226,
      "Ġ-line": 8227,
      "ĠOS": 8228,
      "ĠUk": 8229,
      "ĠEarly": 8230,
      "Ġsucceed": 8231,
      "Ġbrush": 8232,
      "Ġmarks": 8233,
      "inu": 8234,
      "Ġdevo": 8235,
      "Ġsolely": 8236,
      "Ġuniverse": 8237,
      "Ġenterprise": 8238,
      "Ġtransmission": 8239,
      "Ġchildhood": 8240,
      "Ġblocks": 8241,
      "ĠJun": 8242,
      "Ġsharp": 8243,
      "marks": 8244,
      "acked": 8245,
      "Ġweapons": 8246,
      "Ġhumor": 8247,
      "Ġhoping": 8248,
      "Ġcraft": 8249,
      "Ġ-minute": 8250,
      "Ġcrazy": 8251,
      "Ġlikes": 8252,
      "Ġstudying": 8253,
      "Ġsor": 8254,
      "Ġ97": 8255,
      "Ġsingles": 8256,
      "ĠCreate": 8257,
      "Ġheads": 8258,
      "Ġenl": 8259,
      "Ġdisclo": 8260,
      "Ġpromptly": 8261,
      "unt": 8262,
      "ĠAvoid": 8263,
      "Ġevaluate": 8264,
      "hread": 8265,
      "ĠWelcome": 8266,
      "shire": 8267,
      "Ġthread": 8268,
      "tance": 8269,
      "Ġhire": 8270,
      "Ġcontrols": 8271,
      "Ġmathemat": 8272,
      "Ġdishe": 8273,
      "tons": 8274,
      "tan": 8275,
      "Ġcomputers": 8276,
      "Ġcircuit": 8277,
      "ĠSign": 8278,
      "Ġairport": 8279,
      "Ġnations": 8280,
      "UL": 8281,
      "ĠProfessor": 8282,
      "Ġequivalent": 8283,
      "ĠIran": 8284,
      "ĠPerhaps": 8285,
      "Ġspecified": 8286,
      "Ġgenre": 8287,
      "Ġunr": 8288,
      "Ġfert": 8289,
      "ĠBlog": 8290,
      "Ġillegal": 8291,
      "Ġshops": 8292,
      "Ġgifts": 8293,
      "labo": 8294,
      "Ġdisorder": 8295,
      "Ġordered": 8296,
      "Ġstrict": 8297,
      "conne": 8298,
      "ĠMur": 8299,
      "Ġrecrea": 8300,
      "ĠBitcoin": 8301,
      "mances": 8302,
      "can": 8303,
      "Ġdent": 8304,
      "Ġfunny": 8305,
      "Ġevil": 8306,
      "zil": 8307,
      "ĠFin": 8308,
      "Ġwhenever": 8309,
      "Ġimplemented": 8310,
      "ĠSuch": 8311,
      "Ġdecline": 8312,
      "raid": 8313,
      "Ġbeliefs": 8314,
      "...": 8315,
      "iano": 8316,
      "ĠLand": 8317,
      "ĠPDF": 8318,
      "berry": 8319,
      "Ġfluid": 8320,
      "Ġsending": 8321,
      "Ġtargeted": 8322,
      "Ġutilizing": 8323,
      "ĠDC": 8324,
      "Ġtip": 8325,
      "Ġ%,": 8326,
      "Ġmultip": 8327,
      "ĠGM": 8328,
      "Ġabsence": 8329,
      "Ġstronger": 8330,
      "Ġvisited": 8331,
      "iser": 8332,
      "OV": 8333,
      "preme": 8334,
      "Ġexha": 8335,
      "rably": 8336,
      "ĠItaly": 8337,
      "Ġsections": 8338,
      "Ġà": 8339,
      "Ġenthusiasts": 8340,
      "ĠEss": 8341,
      "Ġmoo": 8342,
      "nga": 8343,
      "Ġliked": 8344,
      "Ġescape": 8345,
      "ĠGreek": 8346,
      "Ġdirected": 8347,
      "lat": 8348,
      "Ġformula": 8349,
      "quently": 8350,
      "Ġsecondary": 8351,
      "Ġrefresh": 8352,
      "Ġgraduate": 8353,
      "vors": 8354,
      "Ġcontributing": 8355,
      "ĠFOR": 8356,
      "yard": 8357,
      "uss": 8358,
      "Ġintake": 8359,
      "Ġromantic": 8360,
      "Ġgovern": 8361,
      "nom": 8362,
      "iox": 8363,
      "====": 8364,
      "Ġfavou": 8365,
      "uccess": 8366,
      "nament": 8367,
      "Ġanyway": 8368,
      "Ġsuddenly": 8369,
      "Ġcovering": 8370,
      "Ġacknowled": 8371,
      "ĠBul": 8372,
      "Ġdishes": 8373,
      "Ġ67": 8374,
      "nsing": 8375,
      "Ġworkplace": 8376,
      "Ġunknown": 8377,
      "Ġlogo": 8378,
      "Ġ71": 8379,
      "Ġdelightful": 8380,
      "ĠOl": 8381,
      "Ġending": 8382,
      "Ġscheme": 8383,
      "ĠSource": 8384,
      "ĠOpt": 8385,
      "ĠLuc": 8386,
      "Ġmood": 8387,
      "Ġproductivity": 8388,
      "Ġexhibit": 8389,
      "rateful": 8390,
      "Ġmanufacturer": 8391,
      "Ġgap": 8392,
      "ĠKel": 8393,
      "Ġloose": 8394,
      "Ġpreparing": 8395,
      "Ġlasting": 8396,
      "Ġappealing": 8397,
      "ĠEvent": 8398,
      "eans": 8399,
      "Ġcoal": 8400,
      "Ġrender": 8401,
      "Ġqualified": 8402,
      "Ġanswe": 8403,
      "Ġadvent": 8404,
      "oh": 8405,
      "ingers": 8406,
      "arat": 8407,
      "eco": 8408,
      "Ġrecip": 8409,
      "Ġbol": 8410,
      "Ġinvesting": 8411,
      "Ġemissions": 8412,
      "ĠFair": 8413,
      "ĠExpe": 8414,
      "Ġ-sh": 8415,
      "EST": 8416,
      "ĠAccount": 8417,
      "Ġresil": 8418,
      "ĠScot": 8419,
      "Ġkn": 8420,
      "Ġattract": 8421,
      "ĠStill": 8422,
      "pher": 8423,
      "riculture": 8424,
      "ĠOlymp": 8425,
      "Ġrising": 8426,
      "Ġbreed": 8427,
      "Ġtemporary": 8428,
      "ĠIre": 8429,
      "RI": 8430,
      "Ġevident": 8431,
      "Ġinfluenced": 8432,
      "Ġ82": 8433,
      "ĠBoston": 8434,
      "Ġhonor": 8435,
      "Ġrural": 8436,
      "Ġ-making": 8437,
      "hro": 8438,
      "Ġbreaking": 8439,
      "secu": 8440,
      "Ġsimpl": 8441,
      "Ġindicates": 8442,
      "Ġbags": 8443,
      "ius": 8444,
      "ĠEnjoy": 8445,
      "Ġrequirement": 8446,
      "ofit": 8447,
      "Ġexplicit": 8448,
      "iating": 8449,
      "ĠColumb": 8450,
      "Ġgree": 8451,
      "Ġaccommodate": 8452,
      "ĠMax": 8453,
      "tone": 8454,
      "Ġtrick": 8455,
      "Ġsetup": 8456,
      "Ġchest": 8457,
      "Ġobviously": 8458,
      "Ġmanagers": 8459,
      "ĠStudy": 8460,
      "Ġfinger": 8461,
      "ĠNAS": 8462,
      "Ġmortgage": 8463,
      "Ġ68": 8464,
      "cept": 8465,
      "Ġdifficulty": 8466,
      "Ġtables": 8467,
      "Ġsmoke": 8468,
      "Ġhosts": 8469,
      "assion": 8470,
      "Ġchecking": 8471,
      "Ġsurve": 8472,
      "ĠAppro": 8473,
      "ĠPsy": 8474,
      "ĠTrust": 8475,
      "Ġsurprising": 8476,
      "Ġdelivering": 8477,
      "Ġacquis": 8478,
      "Ġdiscovery": 8479,
      "Ġrefers": 8480,
      "Ġmovements": 8481,
      "ĠKingdom": 8482,
      "Ġjewel": 8483,
      "ĠStory": 8484,
      "Ġsurvival": 8485,
      "Ġleather": 8486,
      "othing": 8487,
      "Ġtag": 8488,
      "Ġlatter": 8489,
      "PN": 8490,
      "Ġarra": 8491,
      "Ġmechanism": 8492,
      "ĠSH": 8493,
      "TH": 8494,
      "ĠConte": 8495,
      "iter": 8496,
      "Ġdivision": 8497,
      "Ġwalked": 8498,
      "Ġ''": 8499,
      "Ġcontributions": 8500,
      "ĠFour": 8501,
      "ĠNatural": 8502,
      "ĠSmall": 8503,
      "Ġecosyste": 8504,
      "Ġbooking": 8505,
      "ĠSanta": 8506,
      "Ġcompliance": 8507,
      "ĠSouthern": 8508,
      "ĠHot": 8509,
      "Ġsignals": 8510,
      "ultane": 8511,
      "bul": 8512,
      "nsed": 8513,
      "Ġparticipation": 8514,
      "Ġ\"S": 8515,
      "Ġinitiatives": 8516,
      "Ġpride": 8517,
      "Ġhighlight": 8518,
      "type": 8519,
      "Ġappreciated": 8520,
      "kens": 8521,
      "Ġprofessor": 8522,
      "Ġrow": 8523,
      "Ġsaved": 8524,
      "Ġgarage": 8525,
      "ĠRequ": 8526,
      "nors": 8527,
      "Ġofferings": 8528,
      "Ġdistinctive": 8529,
      "Ġaimed": 8530,
      "Ġapproval": 8531,
      "inity": 8532,
      "Ġticket": 8533,
      "sue": 8534,
      "Ġpriority": 8535,
      "Ġpowder": 8536,
      "Ġtole": 8537,
      "Ġconversations": 8538,
      "don": 8539,
      "ĠMichigan": 8540,
      "ees": 8541,
      "geable": 8542,
      "Ġshouldn": 8543,
      "Ġentering": 8544,
      "hops": 8545,
      "ĠBroo": 8546,
      "Ġessence": 8547,
      "Ġboxe": 8548,
      "Ġtitles": 8549,
      "Ġmedications": 8550,
      "ĠShi": 8551,
      "Ġeligible": 8552,
      "fall": 8553,
      "Ġphotographs": 8554,
      "Ġteenage": 8555,
      "ĠLocation": 8556,
      "Ġresort": 8557,
      "war": 8558,
      "ĠQuality": 8559,
      "Ġcater": 8560,
      "Ġaccommodation": 8561,
      "ĠAff": 8562,
      "nat": 8563,
      "Ġ86": 8564,
      "ĠEnt": 8565,
      "ĠIreland": 8566,
      "Ġforever": 8567,
      "Ġprinciple": 8568,
      "Ġinvite": 8569,
      "Ġcarrying": 8570,
      "Ġgum": 8571,
      "rb": 8572,
      "Ġmetabol": 8573,
      "ĠRoom": 8574,
      "Ġcalm": 8575,
      "ĠDue": 8576,
      "ĠEnha": 8577,
      "Ġspacious": 8578,
      "Ġcurriculum": 8579,
      "Ġtomorrow": 8580,
      "ĠPut": 8581,
      "ĠCoast": 8582,
      "Ġimprovements": 8583,
      "Ġunderlying": 8584,
      "Ġdoctors": 8585,
      "Ġinteract": 8586,
      "Ġstating": 8587,
      "Ġdad": 8588,
      "nches": 8589,
      "Ġreveal": 8590,
      "Ġbars": 8591,
      "ĠChallenge": 8592,
      "Ġsequence": 8593,
      "UN": 8594,
      "Ġvoluntee": 8595,
      "Ġsomewhere": 8596,
      "Ġencouraging": 8597,
      "Ġreturning": 8598,
      "Ġbroke": 8599,
      "ãĢ": 8600,
      "Ġ76": 8601,
      "Ġwage": 8602,
      "days": 8603,
      "Ġpeak": 8604,
      "Ġrose": 8605,
      "Ġhang": 8606,
      "otic": 8607,
      "Ġpan": 8608,
      "icted": 8609,
      "Ġdisorders": 8610,
      "Ġcake": 8611,
      "ĠLeg": 8612,
      "Ġaside": 8613,
      "ĠEnd": 8614,
      "neys": 8615,
      "ĠCance": 8616,
      "Ġwinner": 8617,
      "ĠPacific": 8618,
      "Ġtracks": 8619,
      "liers": 8620,
      "Ġencourages": 8621,
      "Ġspecialized": 8622,
      "Ġpulled": 8623,
      "Ġleague": 8624,
      "Ġcurrency": 8625,
      "Ġstraightforward": 8626,
      "Ġrequests": 8627,
      "Ġsatisfied": 8628,
      "ĠBased": 8629,
      "ĠPak": 8630,
      "ĠArmy": 8631,
      "Ġrestrictions": 8632,
      "Ġextension": 8633,
      "ĠHT": 8634,
      "Ġpuzz": 8635,
      "Ġdrinks": 8636,
      "ĠSky": 8637,
      "Ġinves": 8638,
      "??": 8639,
      "Ġfruits": 8640,
      "Ġ78": 8641,
      "Ġoxygen": 8642,
      "Ġdisp": 8643,
      "Ġdomi": 8644,
      "cal": 8645,
      "Ġgrant": 8646,
      "rehe": 8647,
      "ĠWin": 8648,
      "atell": 8649,
      "icker": 8650,
      "Ġ-ex": 8651,
      "Ġpoet": 8652,
      "Ġspots": 8653,
      "Ġelectron": 8654,
      "Ġattorney": 8655,
      "Ġafraid": 8656,
      "llers": 8657,
      "ĠDefe": 8658,
      "Ġdil": 8659,
      "ĠMcC": 8660,
      "grity": 8661,
      "Ġbehaviors": 8662,
      "ĠSus": 8663,
      "Ġmeters": 8664,
      "weet": 8665,
      "Ġlegit": 8666,
      "porters": 8667,
      "Ġcrafted": 8668,
      "Ġconcentration": 8669,
      "Ġscenes": 8670,
      "Ġlady": 8671,
      "ĠTit": 8672,
      "ĠFigure": 8673,
      "oming": 8674,
      "Ġinfections": 8675,
      "otato": 8676,
      "Ġfalling": 8677,
      "born": 8678,
      "Ġclock": 8679,
      "ĠAng": 8680,
      "Ġstreets": 8681,
      "Ġscenario": 8682,
      "Ġexamine": 8683,
      "ado": 8684,
      "ĠDub": 8685,
      "Ġundert": 8686,
      "bar": 8687,
      "LY": 8688,
      "ĠOhio": 8689,
      "ĠSC": 8690,
      "vable": 8691,
      "Ġflag": 8692,
      "Ġ\"Ċ": 8693,
      "formative": 8694,
      "ĠAsh": 8695,
      "Ġdiagnosis": 8696,
      "Ġphotography": 8697,
      "You": 8698,
      "GE": 8699,
      "bby": 8700,
      "Ġstuck": 8701,
      "ĠFeatures": 8702,
      "Ġdispl": 8703,
      "Ġyard": 8704,
      "ĠJoin": 8705,
      "ĠLine": 8706,
      "Ġweigh": 8707,
      "Ġduty": 8708,
      "ĠPage": 8709,
      "Ġlosses": 8710,
      "ĠSelf": 8711,
      "ansas": 8712,
      "ram": 8713,
      "ĠCredit": 8714,
      "Ġtall": 8715,
      "Ġadvertise": 8716,
      "isdom": 8717,
      "Ġrice": 8718,
      "Ġfounded": 8719,
      "Ġunusual": 8720,
      "Ġeast": 8721,
      "nivers": 8722,
      "Ġopinions": 8723,
      "Ġscript": 8724,
      "Ġpig": 8725,
      "Ġox": 8726,
      "Ġproved": 8727,
      "Ġdefine": 8728,
      "Ġ92": 8729,
      "host": 8730,
      "ĠOR": 8731,
      "ĠRose": 8732,
      "ĠEV": 8733,
      "ĠEp": 8734,
      "Ġpitch": 8735,
      "Ġmoral": 8736,
      "Ġinfla": 8737,
      "ĠNumber": 8738,
      "Ġkilo": 8739,
      "Ġreward": 8740,
      "teers": 8741,
      "Ġcats": 8742,
      "Ġdropped": 8743,
      "Ġgate": 8744,
      "Ġacquired": 8745,
      "vous": 8746,
      "ERS": 8747,
      "Ġcontra": 8748,
      "ĠWorks": 8749,
      "Ġstrange": 8750,
      "igen": 8751,
      "charge": 8752,
      "ĠVicto": 8753,
      "Ġ-ca": 8754,
      "Ġuncom": 8755,
      "Ġ-su": 8756,
      "Ġcompletion": 8757,
      "educ": 8758,
      "fec": 8759,
      "ĠMod": 8760,
      "Ġcomplimentary": 8761,
      "ĠInclu": 8762,
      "aland": 8763,
      "Ġworkshop": 8764,
      "Ġcharacterized": 8765,
      "Ġmini": 8766,
      "ĠAlexa": 8767,
      "illy": 8768,
      "Ġvete": 8769,
      "ĠDisney": 8770,
      "Ġdisplayed": 8771,
      "Ġflour": 8772,
      "Ġcolumn": 8773,
      "Ġadmit": 8774,
      "Ġfirms": 8775,
      "ĠLes": 8776,
      "Ġperm": 8777,
      "Ġexists": 8778,
      "Ġregime": 8779,
      "ĠHospital": 8780,
      "ĠMobile": 8781,
      "ĠImport": 8782,
      "Ġmold": 8783,
      "Ġsorry": 8784,
      "ĠPl": 8785,
      "Ġpollu": 8786,
      "Ġendo": 8787,
      "Ġtraveling": 8788,
      "Ġec": 8789,
      "Ġinvited": 8790,
      "rients": 8791,
      "Ġharder": 8792,
      "Ġcorrec": 8793,
      "Ġdigest": 8794,
      "mach": 8795,
      "rmo": 8796,
      "ĠâĢĶa": 8797,
      "ĠCri": 8798,
      "Ġneither": 8799,
      "ĠStudies": 8800,
      "ĠMrs": 8801,
      "Ġcognitive": 8802,
      "Ġfurn": 8803,
      "Ġsmoking": 8804,
      "ĠCry": 8805,
      "vated": 8806,
      "ĠCul": 8807,
      "Ġ73": 8808,
      "ĠJac": 8809,
      "Ġdisappe": 8810,
      "Ġgraphics": 8811,
      "Ġadequate": 8812,
      "Ġcolleagues": 8813,
      "Ġmeasured": 8814,
      "ĠSummer": 8815,
      "Ġburn": 8816,
      "Ġemerge": 8817,
      "Ġranking": 8818,
      "ĠCle": 8819,
      "ĠTax": 8820,
      "Ġrele": 8821,
      "Ġprime": 8822,
      "ĠBow": 8823,
      "Ġstudied": 8824,
      "Ġdesigner": 8825,
      "Ġclaimed": 8826,
      "Ġlegislation": 8827,
      "Ġresc": 8828,
      "boratory": 8829,
      "ĠHoly": 8830,
      "ĠCourse": 8831,
      "ĠSales": 8832,
      "Ġdivo": 8833,
      ".W": 8834,
      "Ġ.W": 8835,
      "Ġ74": 8836,
      "Ã¡": 8837,
      "Ġcoa": 8838,
      "eby": 8839,
      "asting": 8840,
      "Ġgrateful": 8841,
      "Ma": 8842,
      "Ġconcerning": 8843,
      "Ġelegant": 8844,
      "rds": 8845,
      "ĠTal": 8846,
      "Ġ98": 8847,
      "aska": 8848,
      "ĠJones": 8849,
      "Ġemails": 8850,
      "ĠTown": 8851,
      "iva": 8852,
      "ĠBey": 8853,
      "Ġembrace": 8854,
      "ĠMatt": 8855,
      "Ġtrail": 8856,
      "rans": 8857,
      "Ġasset": 8858,
      "ĠBrazil": 8859,
      "nymous": 8860,
      "ĠModern": 8861,
      "]>": 8862,
      "sole": 8863,
      "Ġchart": 8864,
      "ĠWeight": 8865,
      "Ġforec": 8866,
      "Ġpink": 8867,
      "Ġperformances": 8868,
      "obe": 8869,
      "fted": 8870,
      "Ġpersons": 8871,
      "Ġegg": 8872,
      "ifting": 8873,
      "reby": 8874,
      "ease": 8875,
      "Ġbonuses": 8876,
      "Ġlaptop": 8877,
      "Ġinvestments": 8878,
      "Ġsauce": 8879,
      "ereby": 8880,
      "Ġovercome": 8881,
      "ĠNon": 8882,
      "hereby": 8883,
      "Ġwitness": 8884,
      "Ġthereby": 8885,
      "Ġ69": 8886,
      "pore": 8887,
      "Ġfalls": 8888,
      "Ġroots": 8889,
      "Ġdeck": 8890,
      "Ġthreats": 8891,
      "urn": 8892,
      "phistic": 8893,
      "Ġprinting": 8894,
      "Ġads": 8895,
      "Ġreno": 8896,
      "ĠLED": 8897,
      "ĠHim": 8898,
      "tles": 8899,
      "ĠLow": 8900,
      "Ġalive": 8901,
      "Ġshoot": 8902,
      "Ġcontrovers": 8903,
      "ĠWriting": 8904,
      "ĠReading": 8905,
      "brid": 8906,
      "Ġpoem": 8907,
      "ĠJackson": 8908,
      "Ġtab": 8909,
      "ĠGeorgia": 8910,
      "EE": 8911,
      "ĠMA": 8912,
      "Ġattended": 8913,
      "Ġrhy": 8914,
      "pse": 8915,
      "Ġharmful": 8916,
      "Ġcertified": 8917,
      "ĠCivil": 8918,
      "Ġroads": 8919,
      "Ġï": 8920,
      "ĠInsurance": 8921,
      "ĠColorado": 8922,
      "ĠNige": 8923,
      "Ġfewer": 8924,
      "Ġretai": 8925,
      "Ġ-dri": 8926,
      "ĠStudent": 8927,
      "ricultural": 8928,
      "ffe": 8929,
      "rome": 8930,
      "ĠBre": 8931,
      "Ġcrush": 8932,
      "ĠEnc": 8933,
      "Ġmeaningful": 8934,
      "ĠMer": 8935,
      "Ġpassage": 8936,
      "Ġessentially": 8937,
      "Ġmanufacturers": 8938,
      "Ġstood": 8939,
      "ĠFit": 8940,
      "tage": 8941,
      "ĠArea": 8942,
      "Ġassociation": 8943,
      "Ġliterally": 8944,
      "ĠEmer": 8945,
      "Ġforum": 8946,
      "Ġnights": 8947,
      "ĠOverall": 8948,
      "dee": 8949,
      "Ġjoining": 8950,
      "Ġaircraft": 8951,
      "Ġaddressed": 8952,
      "greg": 8953,
      "Ġdivided": 8954,
      "Ġ81": 8955,
      "Ġmixture": 8956,
      "inet": 8957,
      "quar": 8958,
      "Ġcelebration": 8959,
      "Ġrelations": 8960,
      "Ġbomb": 8961,
      "Ġ-O": 8962,
      "Ġdys": 8963,
      "Ġtoile": 8964,
      "Ġvisits": 8965,
      ")ĊĊ": 8966,
      "Ġdam": 8967,
      "ĠSeveral": 8968,
      "Ġindicating": 8969,
      "Ġhi": 8970,
      "Ġsophistic": 8971,
      "Ġ-gra": 8972,
      "Ġintervention": 8973,
      "Ġstruggling": 8974,
      "nis": 8975,
      "Ġintrig": 8976,
      "hyd": 8977,
      "ĠOrder": 8978,
      "Ġfold": 8979,
      "Ġretirement": 8980,
      "ĠAla": 8981,
      "ĠRan": 8982,
      "Ġseas": 8983,
      "Ġmon": 8984,
      "ĠAndrew": 8985,
      "ĠChat": 8986,
      "Ġtransformation": 8987,
      "ĠNov": 8988,
      "Ġadopted": 8989,
      "Ġstrive": 8990,
      "ĠFestival": 8991,
      "Ġattempts": 8992,
      "Ġindicated": 8993,
      "Ġpowers": 8994,
      "Ġencountered": 8995,
      "hir": 8996,
      "Ġpropor": 8997,
      ".org": 8998,
      "Ġ.org": 8999,
      "ĠIra": 9000,
      "nz": 9001,
      "Ġcaptivating": 9002,
      "Ġsubstance": 9003,
      "ĠEveryone": 9004,
      "Ġmagazine": 9005,
      "som": 9006,
      "nam": 9007,
      "Ġspecialist": 9008,
      "Ġ84": 9009,
      "No": 9010,
      "Ġhub": 9011,
      "Ġpermit": 9012,
      "ĠLeo": 9013,
      "Ġtape": 9014,
      "Ġessays": 9015,
      "DS": 9016,
      "He": 9017,
      "Ġstrongly": 9018,
      "Ġassistant": 9019,
      "Ġpets": 9020,
      "Ġboxes": 9021,
      "Ġenhancement": 9022,
      "ĠSoftware": 9023,
      "orange": 9024,
      "ferent": 9025,
      "nate": 9026,
      "tts": 9027,
      "Ġvictims": 9028,
      "hu": 9029,
      "Ġemotion": 9030,
      "Ġidentifying": 9031,
      "ĠGB": 9032,
      "world": 9033,
      "ouch": 9034,
      "Ġefficiently": 9035,
      "ĠStra": 9036,
      "Ġfarmers": 9037,
      "nsus": 9038,
      "Ġlayers": 9039,
      "Ġhappiness": 9040,
      "Ġdamaged": 9041,
      "Ġalternatives": 9042,
      "Ġfest": 9043,
      "Ġanymore": 9044,
      "Ġorange": 9045,
      "Ġdescribes": 9046,
      "Ġbuyers": 9047,
      "Ġquantity": 9048,
      "Ġremoving": 9049,
      "Ġtempo": 9050,
      "Ġtargets": 9051,
      "lubs": 9052,
      "Ġresolve": 9053,
      "logists": 9054,
      "rious": 9055,
      "Ġexcite": 9056,
      "Ġ;Ċ": 9057,
      "Ġ-part": 9058,
      "itches": 9059,
      "Ġgym": 9060,
      "ÃŃ": 9061,
      "asted": 9062,
      "ilst": 9063,
      "nomy": 9064,
      "Ġsummary": 9065,
      "Ġbroader": 9066,
      "Ġpsychological": 9067,
      "intage": 9068,
      "Ġsimultane": 9069,
      "ashes": 9070,
      "Ġham": 9071,
      "Ġscr": 9072,
      "ĠFollow": 9073,
      "eels": 9074,
      "Ġlake": 9075,
      "Ġpassword": 9076,
      "Ġshots": 9077,
      "Ġenforcement": 9078,
      "tens": 9079,
      "Ġcharming": 9080,
      "Ġtwenty": 9081,
      "Ġphones": 9082,
      "Ġ-cent": 9083,
      "ashed": 9084,
      "Ġlayout": 9085,
[...]
